TRT-101200-MinMaxCalibration
images: 3c010204
/model.0/conv/Conv_output_0: 3ec1e055
/model.0/act/Sigmoid_output_0: 3c010204
/model.0/act/Mul_output_0: 3ec1e055
/model.1/conv/Conv_output_0: 3ea2221d
/model.1/act/Sigmoid_output_0: 3c010204
/model.1/act/Mul_output_0: 3e50751f
/model.2/cv1/conv/Conv_output_0: 3ea841a3
/model.2/cv1/act/Sigmoid_output_0: 3c010134
/model.2/cv1/act/Mul_output_0: 3dab15ac
/model.2/Split_output_0: 3dab15ac
/model.2/Split_output_1: 3d8ee305
/model.2/m.0/cv1/conv/Conv_output_0: 3e3fe922
/model.2/m.0/cv1/act/Sigmoid_output_0: 3c0100a6
/model.2/m.0/cv1/act/Mul_output_0: 3da2c9e6
/model.2/m.0/cv2/conv/Conv_output_0: 3dda1bfc
/model.2/m.0/cv2/act/Sigmoid_output_0: 3c0101cf
/model.2/m.0/cv2/act/Mul_output_0: 3dc16785
/model.2/m.0/Add_output_0: 3ddebd00
/model.2/Concat_output_0: 3ddebd00
/model.2/cv2/conv/Conv_output_0: 3dcde749
/model.2/cv2/act/Sigmoid_output_0: 3c010063
/model.2/cv2/act/Mul_output_0: 3d9fe16c
/model.3/conv/Conv_output_0: 3daa9c76
/model.3/act/Sigmoid_output_0: 3c00debc
/model.3/act/Mul_output_0: 3d5c6417
/model.4/cv1/conv/Conv_output_0: 3d9d8328
/model.4/cv1/act/Sigmoid_output_0: 3c00f8f4
/model.4/cv1/act/Mul_output_0: 3d8444da
/model.4/Split_output_0: 3d8444da
/model.4/Split_output_1: 3d08c47c
/model.4/m.0/cv1/conv/Conv_output_0: 3d73ae4f
/model.4/m.0/cv1/act/Sigmoid_output_0: 3c00d3ca
/model.4/m.0/cv1/act/Mul_output_0: 3d539ad3
/model.4/m.0/cv2/conv/Conv_output_0: 3d7f4358
/model.4/m.0/cv2/act/Sigmoid_output_0: 3c00d9f4
/model.4/m.0/cv2/act/Mul_output_0: 3d58417b
/model.4/m.0/Add_output_0: 3d735243
/model.4/m.1/cv1/conv/Conv_output_0: 3d63e23f
/model.4/m.1/cv1/act/Sigmoid_output_0: 3c007e35
/model.4/m.1/cv1/act/Mul_output_0: 3d314fc1
/model.4/m.1/cv2/conv/Conv_output_0: 3dcfa7f3
/model.4/m.1/cv2/act/Sigmoid_output_0: 3c0101ef
/model.4/m.1/cv2/act/Mul_output_0: 3dcfa7d1
/model.4/m.1/Add_output_0: 3dcd816b
/model.4/Concat_output_0: 3dcd816b
/model.4/cv2/conv/Conv_output_0: 3d939aa6
/model.4/cv2/act/Sigmoid_output_0: 3c00f9e1
/model.4/cv2/act/Mul_output_0: 3d860207
/model.5/conv/Conv_output_0: 3d813d66
/model.5/act/Sigmoid_output_0: 3c00f720
/model.5/act/Mul_output_0: 3d81327d
/model.6/cv1/conv/Conv_output_0: 3da8665e
/model.6/cv1/act/Sigmoid_output_0: 3c01010d
/model.6/cv1/act/Mul_output_0: 3da8651b
/model.6/Split_output_0: 3da8651b
/model.6/Split_output_1: 3d145561
/model.6/m.0/cv1/conv/Conv_output_0: 3d8423dc
/model.6/m.0/cv1/act/Sigmoid_output_0: 3c00cf92
/model.6/m.0/cv1/act/Mul_output_0: 3d50c25b
/model.6/m.0/cv2/conv/Conv_output_0: 3d783b26
/model.6/m.0/cv2/act/Sigmoid_output_0: 3c00d2b3
/model.6/m.0/cv2/act/Mul_output_0: 3d52d8b4
/model.6/m.0/Add_output_0: 3d592a54
/model.6/m.1/cv1/conv/Conv_output_0: 3d89ce58
/model.6/m.1/cv1/act/Sigmoid_output_0: 3c00e233
/model.6/m.1/cv1/act/Mul_output_0: 3d5fbe0a
/model.6/m.1/cv2/conv/Conv_output_0: 3d9802e9
/model.6/m.1/cv2/act/Sigmoid_output_0: 3c00feb4
/model.6/m.1/cv2/act/Mul_output_0: 3d9485c7
/model.6/m.1/Add_output_0: 3d9d63a0
/model.6/Concat_output_0: 3da8651b
/model.6/cv2/conv/Conv_output_0: 3d8c1f78
/model.6/cv2/act/Sigmoid_output_0: 3c00f03f
/model.6/cv2/act/Mul_output_0: 3d72a34a
/model.7/conv/Conv_output_0: 3d744fd8
/model.7/act/Sigmoid_output_0: 3c00f114
/model.7/act/Mul_output_0: 3d742fc5
/model.8/cv1/conv/Conv_output_0: 3d8bb5c2
/model.8/cv1/act/Sigmoid_output_0: 3c00fc58
/model.8/cv1/act/Mul_output_0: 3d8baf9d
/model.8/Split_output_0: 3d8baf9d
/model.8/Split_output_1: 3d5f172f
/model.8/m.0/cv1/conv/Conv_output_0: 3d6b3bfe
/model.8/m.0/cv1/act/Sigmoid_output_0: 3c00eb93
/model.8/m.0/cv1/act/Mul_output_0: 3d6b1313
/model.8/m.0/cv2/conv/Conv_output_0: 3da05a2f
/model.8/m.0/cv2/act/Sigmoid_output_0: 3c01006e
/model.8/m.0/cv2/act/Mul_output_0: 3da05836
/model.8/m.0/Add_output_0: 3dab8426
/model.8/Concat_output_0: 3dab8426
/model.8/cv2/conv/Conv_output_0: 3d71a648
/model.8/cv2/act/Sigmoid_output_0: 3c00ee74
/model.8/cv2/act/Mul_output_0: 3d6f849d
/model.9/cv1/conv/Conv_output_0: 3d9c8aa9
/model.9/cv1/act/Sigmoid_output_0: 3c010005
/model.9/cv1/act/Mul_output_0: 3d9c883d
/model.9/m/MaxPool_output_0: 3d9c883d
/model.9/m_1/MaxPool_output_0: 3d9c883d
/model.9/m_2/MaxPool_output_0: 3d9c883d
/model.9/Concat_output_0: 3d9c883d
/model.9/cv2/conv/Conv_output_0: 3d8777b0
/model.9/cv2/act/Sigmoid_output_0: 3c00c70b
/model.9/cv2/act/Mul_output_0: 3d4bab76
/model.10/Resize_output_0: 3d4bab76
/model.11/Concat_output_0: 3d72a34a
/model.12/cv1/conv/Conv_output_0: 3d86aadf
/model.12/cv1/act/Sigmoid_output_0: 3c00f2d9
/model.12/cv1/act/Mul_output_0: 3d77bf88
/model.12/Split_output_0: 3d58ddf9
/model.12/Split_output_1: 3d77bf88
/model.12/m.0/cv1/conv/Conv_output_0: 3dc128d4
/model.12/m.0/cv1/act/Sigmoid_output_0: 3c00fedc
/model.12/m.0/cv1/act/Mul_output_0: 3d954f4d
/model.12/m.0/cv2/conv/Conv_output_0: 3dbb6000
/model.12/m.0/cv2/act/Sigmoid_output_0: 3c0101b8
/model.12/m.0/cv2/act/Mul_output_0: 3dbb5f92
/model.12/Concat_output_0: 3dbb5f92
/model.12/cv2/conv/Conv_output_0: 3da86358
/model.12/cv2/act/Sigmoid_output_0: 3c01010d
/model.12/cv2/act/Mul_output_0: 3da86215
/model.13/Resize_output_0: 3da86215
/model.14/Concat_output_0: 3da86215
/model.15/cv1/conv/Conv_output_0: 3d8d4460
/model.15/cv1/act/Sigmoid_output_0: 3c00fcdf
/model.15/cv1/act/Mul_output_0: 3d8d3ebd
/model.15/Split_output_0: 3d8d3ebd
/model.15/Split_output_1: 3d4ca850
/model.15/m.0/cv1/conv/Conv_output_0: 3d7171e0
/model.15/m.0/cv1/act/Sigmoid_output_0: 3c00e5f6
/model.15/m.0/cv1/act/Mul_output_0: 3d63d588
/model.15/m.0/cv2/conv/Conv_output_0: 3e5a8b7b
/model.15/m.0/cv2/act/Sigmoid_output_0: 3c00ff02
/model.15/m.0/cv2/act/Mul_output_0: 3d961458
/model.15/Concat_output_0: 3d961458
/model.15/cv2/conv/Conv_output_0: 3e34ff08
/model.15/cv2/act/Sigmoid_output_0: 3c00e975
/model.15/cv2/act/Mul_output_0: 3d682448
/model.16/conv/Conv_output_0: 3d96fdaa
/model.22/cv4.0/cv4.0.0/conv/Conv_output_0: 3dddf0f1
/model.22/cv2.0/cv2.0.0/conv/Conv_output_0: 3daa545f
/model.22/cv3.0/cv3.0.0/conv/Conv_output_0: 3dcdd0bb
/model.16/act/Sigmoid_output_0: 3c00ff2c
/model.22/cv4.0/cv4.0.0/act/Sigmoid_output_0: 3c0101fb
/model.22/cv2.0/cv2.0.0/act/Sigmoid_output_0: 3c00fa01
/model.22/cv3.0/cv3.0.0/act/Sigmoid_output_0: 3c00f93f
/model.16/act/Mul_output_0: 3d96fa57
/model.22/cv4.0/cv4.0.0/act/Mul_output_0: 3dddf0e2
/model.22/cv2.0/cv2.0.0/act/Mul_output_0: 3d8640ab
/model.22/cv3.0/cv3.0.0/act/Mul_output_0: 3d84cdc3
/model.17/Concat_output_0: 3da86215
/model.22/cv4.0/cv4.0.1/conv/Conv_output_0: 3e0eed34
/model.22/cv2.0/cv2.0.1/conv/Conv_output_0: 3d8f1c95
/model.22/cv3.0/cv3.0.1/conv/Conv_output_0: 3eba90b0
/model.18/cv1/conv/Conv_output_0: 3da4377a
/model.22/cv4.0/cv4.0.1/act/Sigmoid_output_0: 3c01016e
/model.22/cv2.0/cv2.0.1/act/Sigmoid_output_0: 3c00fc70
/model.22/cv3.0/cv3.0.1/act/Sigmoid_output_0: 3c010204
/model.18/cv1/act/Sigmoid_output_0: 3c01007b
/model.22/cv4.0/cv4.0.1/act/Mul_output_0: 3db048ee
/model.22/cv2.0/cv2.0.1/act/Mul_output_0: 3d8bf205
/model.22/cv3.0/cv3.0.1/act/Mul_output_0: 3eba90b0
/model.18/cv1/act/Mul_output_0: 3da0f420
/model.22/cv4.0/cv4.0.2/Conv_output_0: 3c286d58
/model.22/cv2.0/cv2.0.2/Conv_output_0: 3de07a39
/model.22/cv3.0/cv3.0.2/Conv_output_0: 3f062cde
/model.18/Split_output_0: 3da0f420
/model.18/Split_output_1: 3d755e25
/model.22/Reshape_output_0: 3c286d58
/model.22/Concat_1_output_0: 3f062cde
/model.18/m.0/cv1/conv/Conv_output_0: 3dbbf065
/model.22/Reshape_3_output_0: 3f062cde
/model.18/m.0/cv1/act/Sigmoid_output_0: 3c010122
/model.18/m.0/cv1/act/Mul_output_0: 3da9cc73
/model.18/m.0/cv2/conv/Conv_output_0: 3e4c29ab
/model.18/m.0/cv2/act/Sigmoid_output_0: 3c0101ab
/model.18/m.0/cv2/act/Mul_output_0: 3db8e32e
/model.18/Concat_output_0: 3db8e32e
/model.18/cv2/conv/Conv_output_0: 3dd036d7
/model.18/cv2/act/Sigmoid_output_0: 3c0101ed
/model.18/cv2/act/Mul_output_0: 3dce7701
/model.19/conv/Conv_output_0: 3d9f725c
/model.22/cv4.1/cv4.1.0/conv/Conv_output_0: 3daa2b0d
/model.22/cv2.1/cv2.1.0/conv/Conv_output_0: 3db4068f
/model.22/cv3.1/cv3.1.0/conv/Conv_output_0: 3ddb79ad
/model.19/act/Sigmoid_output_0: 3c010058
/model.22/cv4.1/cv4.1.0/act/Sigmoid_output_0: 3c00eaa4
/model.22/cv2.1/cv2.1.0/act/Sigmoid_output_0: 3c00fbc6
/model.22/cv3.1/cv3.1.0/act/Sigmoid_output_0: 3c0101c5
/model.19/act/Mul_output_0: 3d9f704b
/model.22/cv4.1/cv4.1.0/act/Mul_output_0: 3d69bed8
/model.22/cv2.1/cv2.1.0/act/Mul_output_0: 3d8a2c9e
/model.22/cv3.1/cv3.1.0/act/Mul_output_0: 3dbe3ae0
/model.20/Concat_output_0: 3d9f704b
/model.22/cv4.1/cv4.1.1/conv/Conv_output_0: 3ddfec79
/model.22/cv2.1/cv2.1.1/conv/Conv_output_0: 3d8fa10c
/model.22/cv3.1/cv3.1.1/conv/Conv_output_0: 3e504869
/model.21/cv1/conv/Conv_output_0: 3db2d208
/model.22/cv4.1/cv4.1.1/act/Sigmoid_output_0: 3c00d38c
/model.22/cv2.1/cv2.1.1/act/Sigmoid_output_0: 3c00fd0a
/model.22/cv3.1/cv3.1.1/act/Sigmoid_output_0: 3c010204
/model.21/cv1/act/Sigmoid_output_0: 3c010182
/model.22/cv4.1/cv4.1.1/act/Mul_output_0: 3d536f84
/model.22/cv2.1/cv2.1.1/act/Mul_output_0: 3d8dc831
/model.22/cv3.1/cv3.1.1/act/Mul_output_0: 3e4fd5a5
/model.21/cv1/act/Mul_output_0: 3db2d154
/model.22/cv4.1/cv4.1.2/Conv_output_0: 3c290fc8
/model.22/cv2.1/cv2.1.2/Conv_output_0: 3dae40fa
/model.22/cv3.1/cv3.1.2/Conv_output_0: 3edf4cd4
/model.21/Split_output_0: 3da59e15
/model.21/Split_output_1: 3db2d154
/model.22/Reshape_1_output_0: 3c290fc8
/model.22/Concat_2_output_0: 3edf4cd4
/model.21/m.0/cv1/conv/Conv_output_0: 3dfdce38
/model.22/Reshape_4_output_0: 3edf4cd4
/model.21/m.0/cv1/act/Sigmoid_output_0: 3c010203
/model.21/m.0/cv1/act/Mul_output_0: 3dfdce36
/model.21/m.0/cv2/conv/Conv_output_0: 3dd38c34
/model.21/m.0/cv2/act/Sigmoid_output_0: 3c0101ae
/model.21/m.0/cv2/act/Mul_output_0: 3db980f6
/model.21/Concat_output_0: 3db980f6
/model.21/cv2/conv/Conv_output_0: 3ddb2cb7
/model.21/cv2/act/Sigmoid_output_0: 3c0101fa
/model.21/cv2/act/Mul_output_0: 3ddb2ca6
/model.22/cv4.2/cv4.2.0/conv/Conv_output_0: 3d898485
/model.22/cv2.2/cv2.2.0/conv/Conv_output_0: 3daa2b2c
/model.22/cv3.2/cv3.2.0/conv/Conv_output_0: 3dbff3d1
/model.22/cv4.2/cv4.2.0/act/Sigmoid_output_0: 3c005db4
/model.22/cv2.2/cv2.2.0/act/Sigmoid_output_0: 3c010127
/model.22/cv3.2/cv3.2.0/act/Sigmoid_output_0: 3c0101cb
/model.22/cv4.2/cv4.2.0/act/Mul_output_0: 3d2a0858
/model.22/cv2.2/cv2.2.0/act/Mul_output_0: 3daa2a09
/model.22/cv3.2/cv3.2.0/act/Mul_output_0: 3dbff37b
/model.22/cv4.2/cv4.2.1/conv/Conv_output_0: 3d8f0ca8
/model.22/cv2.2/cv2.2.1/conv/Conv_output_0: 3dc62075
/model.22/cv3.2/cv3.2.1/conv/Conv_output_0: 3e03765c
/model.22/cv4.2/cv4.2.1/act/Sigmoid_output_0: 3bfec1e6
/model.22/cv2.2/cv2.2.1/act/Sigmoid_output_0: 3c0101dd
/model.22/cv3.2/cv3.2.1/act/Sigmoid_output_0: 3c010204
/model.22/cv4.2/cv4.2.1/act/Mul_output_0: 3d0ad091
/model.22/cv2.2/cv2.2.1/act/Mul_output_0: 3dc62038
/model.22/cv3.2/cv3.2.1/act/Mul_output_0: 3e03765c
/model.22/cv4.2/cv4.2.2/Conv_output_0: 3c70add9
/model.22/cv2.2/cv2.2.2/Conv_output_0: 3d98efd8
/model.22/cv3.2/cv3.2.2/Conv_output_0: 3e96e8ee
/model.22/Reshape_2_output_0: 3c70add9
/model.22/Concat_3_output_0: 3e96e8ee
/model.22/Concat_output_0: 3c70add9
/model.22/Reshape_5_output_0: 3e96e8ee
/model.22/Sigmoid_output_0: 3bc721ce
/model.22/Concat_4_output_0: 3f062cde
/model.22/Constant_3_output_0_output: 3b010204
ONNXTRT_Broadcast_output: 3b010204
/model.22/Sub_output_0: 3b86a0cc
/model.22/Split_output_0: 3de07a39
/model.22/Split_output_1: 3f062cde
/model.22/Constant_4_output_0_output: 3ccaa525
ONNXTRT_Broadcast_33_output: 3ccaa525
/model.22/Mul_output_0: 3c53792d
/model.22/dfl/Reshape_output_0: 3de07a39
/model.22/Sigmoid_1_output_0: 3be947d9
/model.22/dfl/Transpose_output_0: 3de07a39
/model.22/Cos_output_0: 3c010204
/model.22/Sin_output_0: 3c010202
/model.22/dfl/Softmax_output: 3bfbf424
/model.22/dfl/Softmax_output_0: 3bfbf424
/model.22/dfl/conv/Conv_output_0: 3de7ccd6
/model.22/dfl/Reshape_1_output_0: 3de7ccd6
/model.22/Split_1_output_0: 3de7ccd6
/model.22/Split_1_output_1: 3de01b38
/model.22/Sub_1_output_0: 3d96b633
/model.22/Add_2_output_0: 3e603c86
/model.22/Constant_9_output_0_output: 3c810204
ONNXTRT_Broadcast_41_output: 3c810204
/model.22/Div_output_0: 3d16b633
/model.22/Split_2_output_0: 3d16b633
/model.22/Split_2_output_1: 3cffa63a
/model.22/Mul_1_output_0: 3cfeb533
/model.22/Mul_2_output_0: 3cf6c4ef
/model.22/Mul_3_output_0: 3d10174e
/model.22/Mul_4_output_0: 3ccca533
/model.22/Sub_2_output_0: 3cfd056a
/model.22/Add_output_0: 3d13c43e
/model.22/Concat_5_output_0: 3d13c43e
/model.22/Constant_11_output_0_output: 3f808102
/model.22/Add_1_output_0: 3f80a7ec
/model.22/Concat_6_output_0: 3f80a7ec
/model.22/Constant_12_output_0_output: 3e810204
ONNXTRT_Broadcast_46_output: 3e810204
/model.22/Mul_5_output_0: 4100a7ec
output0: 4100a7ec
