TRT-101200-MinMaxCalibration
images: 3c010204
/model.0/conv/Conv_output_0: 3ef5eca3
/model.0/act/Sigmoid_output_0: 3c010204
/model.0/act/Mul_output_0: 3ef5eca3
/model.1/conv/Conv_output_0: 3f5c73a4
/model.1/act/Sigmoid_output_0: 3c010204
/model.1/act/Mul_output_0: 3f230466
/model.2/cv1/conv/Conv_output_0: 3f14d61b
/model.2/cv1/act/Sigmoid_output_0: 3c010203
/model.2/cv1/act/Mul_output_0: 3dfaefc6
/model.22/Mul_2_output_0: 40a57f3c
/model.18/cv3/cv3.0/m/m.0/Add_output_0: 3d2d26e5
/model.22/Sub_output_0: 3f1fd819
/model.21/cv3/cv3.0/m/m.0/cv2/act/Mul_output_0: 3d7a09cf
/model.18/cv3/cv3.1/act/Mul_output_0: 3dabdc2a
/model.21/cv2/cv2.0/m/m.2/cv1/conv/Conv_output_0: 3ddd4fa9
/model.18/cv3/cv3.0/m/m.0/cv2/act/Mul_output_0: 3d27adaa
/model.15/cv3/cv3.0/m/m.1/cv1/conv/Conv_output_0: 3d79e62d
/model.18/cv3/cv3.0/m/m.1/cv1/conv/Conv_output_0: 3de5626e
/model.18/Concat_output_0: 3daecbf6
/model.21/cv2/cv2.0/cv3/conv/Conv_output_0: 3dc02ae0
/model.22/Sub_1_output_0: 3e5de9b5
/model.18/cv3/cv3.0/m/m.0/cv2/act/Sigmoid_output_0: 3c00519e
/model.15/cv3/cv3.0/m/m.1/cv2/act/Mul_output_0: 3d7ec281
/model.18/cv3/cv3.0/m/m.0/cv1/act/Mul_output_0: 3dac05f4
/model.21/cv2/cv2.0/m/m.0/cv2/act/Sigmoid_output_0: 3c00d5ff
/model.18/cv3/cv3.0/m/m.0/cv2/conv/Conv_output_0: 3d28942b
/model.22/cv3.1/cv3.1.1/conv/Conv_output_0: 3eab9625
/model.15/cv3/cv3.0/m/m.0/cv2/act/Mul_output_0: 3d236fd2
/model.18/cv3/cv3.0/cv3/conv/Conv_output_0: 3dc67398
/model.15/cv2/cv2.0/m/m.1/cv2/act/Mul_output_0: 3d168d47
/model.21/cv3/cv3.0/Concat_output_0: 3e04ea30
/model.22/cv3.2/cv3.2.1/conv/Conv_output_0: 3e5b4bad
/model.18/cv3/cv3.0/m/m.0/cv1/act/Sigmoid_output_0: 3c010141
/model.22/Constant_9_output_0_output: 3f204081
/model.18/cv3/cv3.0/m/m.0/cv1/conv/Conv_output_0: 3dac06f9
/model.2/Slice_output_0: 3dfaefc6
/model.18/cv3/cv3.0/cv1/act/Mul_output_0: 3d20e82a
/model.18/cv2/cv2.1/act/Sigmoid_output_0: 3c010160
/model.21/cv3/cv3.0/m/m.2/cv2/act/Sigmoid_output_0: 3c010204
/model.21/cv2/cv2.0/cv1/conv/Conv_output_0: 3d5d9e44
/model.15/cv3/cv3.0/m/m.0/cv1/act/Mul_output_0: 3d14d141
/model.18/cv3/cv3.0/cv2/act/Sigmoid_output_0: 3c0101f9
/model.18/cv3/cv3.0/cv1/act/Sigmoid_output_0: 3c0029bd
/model.18/cv3/cv3.0/cv2/act/Mul_output_0: 3dd9c373
/model.18/cv3/cv3.0/cv2/conv/Conv_output_0: 3dd9c386
/model.18/cv3/cv3.0/m/m.2/Add_output_0: 3dabf560
/model.22/Div_1_output_0: 3f208697
/model.22/cv2.2/cv2.2.0/act/Mul_output_0: 3db0a3b1
/model.18/cv3/cv3.0/cv1/conv/Conv_output_0: 3d21f7b2
/model.15/cv2/cv2.0/m/m.2/cv1/conv/Conv_output_0: 3d3e61a4
/model.21/cv2/cv2.0/cv2/act/Sigmoid_output_0: 3c00f8f6
/model.22/Slice_output_0: 3ddc59dd
/model.18/cv2/cv2.1/conv/Conv_output_0: 3daeccd5
/model.22/Constant_11_output_0_output: 3c810204
/model.18/cv2/cv2.0/cv3/act/Mul_output_0: 3e00d394
/model.18/cv2/cv2.1/act/Mul_output_0: 3daecbf6
/model.18/cv2/cv2.0/cv3/act/Sigmoid_output_0: 3c010203
/model.21/cv2/cv2.0/cv2/conv/Conv_output_0: 3d8450c6
/model.18/cv2/cv2.0/cv3/conv/Conv_output_0: 3e00d395
/model.21/cv2/cv2.0/cv1/act/Sigmoid_output_0: 3c00dfce
/model.18/cv2/cv2.0/Concat_output_0: 3dcf2c1c
/model.2/Slice_1_output_0: 3db3b764
/model.2/cv2/conv/Conv_output_0: 3e0bd12b
/model.2/cv2/act/Sigmoid_output_0: 3c010202
/model.2/cv2/act/Mul_output_0: 3df40f9b
/model.2/cv3/conv/Conv_output_0: 3e8bf63b
/model.2/cv3/act/Sigmoid_output_0: 3c0101fe
/model.2/cv3/act/Mul_output_0: 3de37f19
/model.2/Concat_output_0: 3dfaefc6
/model.2/cv4/conv/Conv_output_0: 3e187dda
/model.2/cv4/act/Sigmoid_output_0: 3c00fea3
/model.2/cv4/act/Mul_output_0: 3d9432ad
/model.3/AveragePool_output_0: 3d9432ad
/model.3/cv1/conv/Conv_output_0: 3daca50f
/model.3/cv1/act/Sigmoid_output_0: 3c00914c
/model.3/cv1/act/Mul_output_0: 3d367551
/model.4/cv1/conv/Conv_output_0: 3da06943
/model.4/cv1/act/Sigmoid_output_0: 3c00e254
/model.4/cv1/act/Mul_output_0: 3d5fdf8a
/model.18/cv2/cv2.0/m/m.2/Add_output_0: 3da345b3
/model.15/cv3/cv3.0/m/m.0/cv1/act/Sigmoid_output_0: 3bff9769
/model.21/cv2/cv2.0/m/m.0/cv1/act/Mul_output_0: 3d95fb9a
/model.15/cv3/cv3.0/m/m.2/cv1/act/Sigmoid_output_0: 3bf69e08
/model.18/cv2/cv2.0/m/m.2/cv2/act/Mul_output_0: 3da537f1
/model.18/cv2/cv2.0/m/m.2/cv2/act/Sigmoid_output_0: 3c0100d6
/model.15/cv2/cv2.0/cv3/act/Mul_output_0: 3d077e71
/model.18/cv2/cv2.0/m/m.2/cv2/conv/Conv_output_0: 3da53974
/model.18/cv2/cv2.0/m/m.2/cv1/act/Mul_output_0: 3d307a5c
/model.15/cv2/cv2.0/m/m.2/cv1/act/Sigmoid_output_0: 3bfd68cc
/model.22/Reshape_1_output_0: 3e7ad827
/model.18/cv3/cv3.0/m/m.1/cv2/conv/Conv_output_0: 3d6b9581
/model.18/cv2/cv2.0/m/m.2/cv1/act/Sigmoid_output_0: 3c007ad4
/model.22/Concat_4_output_0: 3f208697
/model.22/cv2.2/cv2.2.0/conv/Conv_output_0: 3db0a47b
/model.21/cv2/cv2.0/cv3/act/Mul_output_0: 3dc02a8c
/model.18/cv2/cv2.0/m/m.2/cv1/conv/Conv_output_0: 3d8d77b1
/model.22/cv3.1/cv3.1.0/act/Sigmoid_output_0: 3c0101a2
/model.22/Constant_10_output_0_output: 3f204081
/model.18/cv2/cv2.0/m/m.1/Add_output_0: 3d8417fe
/model.18/cv2/cv2.0/m/m.1/cv2/act/Mul_output_0: 3d4a8e9f
/model.21/cv3/cv3.0/cv3/act/Mul_output_0: 3d72b5ab
/model.22/cv3.1/cv3.1.2/Conv_output_0: 3e7ad827
/model.18/cv2/cv2.0/m/m.1/cv2/act/Sigmoid_output_0: 3c00c4ff
/model.4/Slice_output_0: 3d5fdf8a
/model.22/Concat_3_output_0: 3e7ad827
/model.18/cv3/cv3.0/m/m.2/cv1/act/Sigmoid_output_0: 3c00fcd8
/model.18/cv2/cv2.0/m/m.0/Add_output_0: 3d53c405
/model.18/cv2/cv2.0/m/m.1/cv1/act/Mul_output_0: 3d807f37
/model.18/cv2/cv2.0/m/m.1/cv1/act/Sigmoid_output_0: 3c00f69e
/model.18/cv3/cv3.1/conv/Conv_output_0: 3e079487
/model.21/cv3/cv3.0/m/m.2/cv2/conv/Conv_output_0: 3e1f9148
/model.18/cv2/cv2.0/m/m.1/cv2/conv/Conv_output_0: 3d6e4138
/model.15/cv2/cv2.0/m/m.2/cv1/act/Mul_output_0: 3cfde321
/model.21/cv3/cv3.0/cv1/act/Mul_output_0: 3d3ea0ba
/model.15/cv3/cv3.0/cv1/conv/Conv_output_0: 3cec211b
/model.18/cv2/cv2.0/m/m.1/cv1/conv/Conv_output_0: 3d808a93
/model.18/cv3/cv3.0/m/m.2/cv1/act/Mul_output_0: 3d8d2739
/model.18/cv2/cv2.0/m/m.0/cv2/act/Mul_output_0: 3d57b452
/model.18/cv2/cv2.0/m/m.0/cv2/act/Sigmoid_output_0: 3c00d945
/model.15/cv2/cv2.0/cv3/act/Sigmoid_output_0: 3bfe6c99
/model.21/cv1/act/Sigmoid_output_0: 3c00e68d
/model.18/cv2/cv2.0/m/m.0/cv2/conv/Conv_output_0: 3d57f889
/model.22/cv2.1/cv2.1.1/act/Sigmoid_output_0: 3c010204
/model.22/dfl/Reshape_1_output_0: 3dea88a0
/model.18/cv2/cv2.0/m/m.0/cv1/act/Mul_output_0: 3d62f176
/model.18/cv2/cv2.0/m/m.0/cv1/act/Sigmoid_output_0: 3c00e52e
/model.18/cv3/cv3.0/Concat_output_0: 3dd9c373
/model.22/dfl/Softmax_output_0: 3bf7e042
/model.21/cv3/cv3.0/m/m.1/cv1/conv/Conv_output_0: 3da453f8
/model.4/Slice_1_output_0: 3d1c05cb
/model.4/cv2/cv2.0/cv1/conv/Conv_output_0: 3d22e5bc
/model.4/cv2/cv2.0/cv2/conv/Conv_output_0: 3d2baf4c
/model.4/cv2/cv2.0/cv1/act/Sigmoid_output_0: 3c002fd6
/model.4/cv2/cv2.0/cv2/act/Sigmoid_output_0: 3bfec083
/model.4/cv2/cv2.0/cv1/act/Mul_output_0: 3d21dc58
/model.4/cv2/cv2.0/cv2/act/Mul_output_0: 3d0ac224
/model.4/cv2/cv2.0/m/m.0/cv1/conv/Conv_output_0: 3d96fc9c
/model.4/cv2/cv2.0/m/m.0/cv1/act/Sigmoid_output_0: 3c009720
/model.4/cv2/cv2.0/m/m.0/cv1/act/Mul_output_0: 3d3834a9
/model.4/cv2/cv2.0/m/m.0/cv2/conv/Conv_output_0: 3d471c84
/model.4/cv2/cv2.0/m/m.0/cv2/act/Sigmoid_output_0: 3bf85613
/model.4/cv2/cv2.0/m/m.0/cv2/act/Mul_output_0: 3cc9736f
/model.4/cv2/cv2.0/m/m.0/Add_output_0: 3d4e26da
/model.4/cv2/cv2.0/m/m.1/cv1/conv/Conv_output_0: 3d870c63
/model.4/cv2/cv2.0/m/m.1/cv1/act/Sigmoid_output_0: 3c005cd2
/model.4/cv2/cv2.0/m/m.1/cv1/act/Mul_output_0: 3d29dacb
/model.4/cv2/cv2.0/m/m.1/cv2/conv/Conv_output_0: 3d3bf3b4
/model.4/cv2/cv2.0/m/m.1/cv2/act/Sigmoid_output_0: 3c00a108
/model.4/cv2/cv2.0/m/m.1/cv2/act/Mul_output_0: 3d3b6668
/model.4/cv2/cv2.0/m/m.1/Add_output_0: 3d4ed500
/model.4/cv2/cv2.0/m/m.2/cv1/conv/Conv_output_0: 3d734710
/model.4/cv2/cv2.0/m/m.2/cv1/act/Sigmoid_output_0: 3bfebf04
/model.4/cv2/cv2.0/m/m.2/cv1/act/Mul_output_0: 3d0ab289
/model.4/cv2/cv2.0/m/m.2/cv2/conv/Conv_output_0: 3d29021b
/model.4/cv2/cv2.0/m/m.2/cv2/act/Sigmoid_output_0: 3bfd2bc2
/model.4/cv2/cv2.0/m/m.2/cv2/act/Mul_output_0: 3cfa6432
/model.4/cv2/cv2.0/m/m.2/Add_output_0: 3d5b328c
/model.4/cv2/cv2.0/Concat_output_0: 3d5b328c
/model.4/cv2/cv2.0/cv3/conv/Conv_output_0: 3d5233ef
/model.4/cv2/cv2.0/cv3/act/Sigmoid_output_0: 3bfff287
/model.4/cv2/cv2.0/cv3/act/Mul_output_0: 3d1a273e
/model.4/cv2/cv2.1/conv/Conv_output_0: 3d74ed24
/model.4/cv2/cv2.1/act/Sigmoid_output_0: 3c008cb4
/model.4/cv2/cv2.1/act/Mul_output_0: 3d3525b4
/model.4/cv3/cv3.0/cv1/conv/Conv_output_0: 3d6d752f
/model.4/cv3/cv3.0/cv2/conv/Conv_output_0: 3dae2807
/model.4/cv3/cv3.0/cv1/act/Sigmoid_output_0: 3c00ed12
/model.4/cv3/cv3.0/cv2/act/Sigmoid_output_0: 3c00fe2d
/model.4/cv3/cv3.0/cv1/act/Mul_output_0: 3d6d4ea2
/model.4/cv3/cv3.0/cv2/act/Mul_output_0: 3d9216ef
/model.4/cv3/cv3.0/m/m.0/cv1/conv/Conv_output_0: 3dae3116
/model.4/cv3/cv3.0/m/m.0/cv1/act/Sigmoid_output_0: 3c00e0d7
/model.4/cv3/cv3.0/m/m.0/cv1/act/Mul_output_0: 3d5e62a0
/model.4/cv3/cv3.0/m/m.0/cv2/conv/Conv_output_0: 3d4d1723
/model.4/cv3/cv3.0/m/m.0/cv2/act/Sigmoid_output_0: 3c0013c3
/model.4/cv3/cv3.0/m/m.0/cv2/act/Mul_output_0: 3d1dacde
/model.4/cv3/cv3.0/m/m.0/Add_output_0: 3d819f3f
/model.4/cv3/cv3.0/m/m.1/cv1/conv/Conv_output_0: 3d773b08
/model.4/cv3/cv3.0/m/m.1/cv1/act/Sigmoid_output_0: 3c00cc46
/model.4/cv3/cv3.0/m/m.1/cv1/act/Mul_output_0: 3d4eb156
/model.4/cv3/cv3.0/m/m.1/cv2/conv/Conv_output_0: 3d5c01fc
/model.4/cv3/cv3.0/m/m.1/cv2/act/Sigmoid_output_0: 3c00d601
/model.4/cv3/cv3.0/m/m.1/cv2/act/Mul_output_0: 3d55334e
/model.4/cv3/cv3.0/m/m.1/Add_output_0: 3d855e67
/model.4/cv3/cv3.0/m/m.2/cv1/conv/Conv_output_0: 3d7b2628
/model.4/cv3/cv3.0/m/m.2/cv1/act/Sigmoid_output_0: 3c00bb69
/model.4/cv3/cv3.0/m/m.2/cv1/act/Mul_output_0: 3d45ca32
/model.4/cv3/cv3.0/m/m.2/cv2/conv/Conv_output_0: 3d9e2e7a
/model.4/cv3/cv3.0/m/m.2/cv2/act/Sigmoid_output_0: 3c010036
/model.4/cv3/cv3.0/m/m.2/cv2/act/Mul_output_0: 3d9e2c44
/model.4/cv3/cv3.0/m/m.2/Add_output_0: 3da0f59e
/model.4/cv3/cv3.0/Concat_output_0: 3da0f59e
/model.4/cv3/cv3.0/cv3/conv/Conv_output_0: 3d8a3999
/model.4/cv3/cv3.0/cv3/act/Sigmoid_output_0: 3c00ed34
/model.4/cv3/cv3.0/cv3/act/Mul_output_0: 3d6d82c2
/model.4/cv3/cv3.1/conv/Conv_output_0: 3dc33d82
/model.4/cv3/cv3.1/act/Sigmoid_output_0: 3c00cb28
/model.4/cv3/cv3.1/act/Mul_output_0: 3d4e064a
/model.4/Concat_output_0: 3d5fdf8a
/model.4/cv4/conv/Conv_output_0: 3d6d7414
/model.4/cv4/act/Sigmoid_output_0: 3c00ed11
/model.4/cv4/act/Mul_output_0: 3d6d4d85
/model.5/AveragePool_output_0: 3d6d4d85
/model.5/cv1/conv/Conv_output_0: 3d7beff2
/model.5/cv1/act/Sigmoid_output_0: 3c008b6f
/model.5/cv1/act/Mul_output_0: 3d34cb05
/model.6/cv1/conv/Conv_output_0: 3d66f932
/model.6/cv1/act/Sigmoid_output_0: 3c00abc5
/model.6/cv1/act/Mul_output_0: 3d3f3de7
/model.18/cv2/cv2.0/m/m.0/cv1/conv/Conv_output_0: 3d750511
/model.15/cv2/cv2.0/m/m.2/Add_output_0: 3d82c4d5
/model.18/cv3/cv3.1/act/Sigmoid_output_0: 3c01013e
/model.22/Sigmoid_output_0: 3bf6ee50
/model.18/cv2/cv2.0/cv2/act/Mul_output_0: 3dcf2c1c
/model.22/Split_output_0: 3df1bf23
/model.18/cv2/cv2.0/cv1/act/Mul_output_0: 3d088b6f
/model.22/cv3.2/cv3.2.0/act/Sigmoid_output_0: 3c01003e
/model.18/cv2/cv2.0/cv2/act/Sigmoid_output_0: 3c0101ee
/model.21/cv3/cv3.0/cv3/conv/Conv_output_0: 3e29b5af
/model.22/Concat_2_output_0: 3e55228a
/model.22/cv2.1/cv2.1.0/act/Mul_output_0: 3da4cab3
/model.18/cv3/cv3.0/m/m.2/cv2/conv/Conv_output_0: 3daf0a87
/model.18/cv2/cv2.0/cv1/act/Sigmoid_output_0: 3bfe8867
/model.15/cv3/cv3.0/m/m.2/cv1/act/Mul_output_0: 3cbd8d10
/model.22/cv2.1/cv2.1.1/conv/Conv_output_0: 3e94a771
/model.15/cv2/cv2.0/m/m.2/cv2/act/Sigmoid_output_0: 3c00b71a
/model.22/Add_1_output_0: 3f261db7
/model.15/cv2/cv2.0/m/m.2/cv2/act/Mul_output_0: 3d43db42
ONNXTRT_Broadcast_output: 3c810204
/model.18/cv2/cv2.0/cv2/conv/Conv_output_0: 3dcf2c3f
/model.18/cv2/cv2.0/cv1/conv/Conv_output_0: 3d0a69bf
/model.22/Split_output_1: 3e7ad827
/model.22/dfl/Reshape_output_0: 3df1bf23
/model.15/cv2/cv2.0/m/m.1/cv1/act/Mul_output_0: 3d094d28
/model.6/Slice_output_0: 3d3ef5c5
/model.22/Add_2_output_0: 3fa08697
/model.22/cv3.1/cv3.1.0/conv/Conv_output_0: 3e21ae45
/model.15/cv3/cv3.0/cv1/act/Sigmoid_output_0: 3bf3c378
/model.22/cv2.2/cv2.2.1/act/Sigmoid_output_0: 3c010204
/model.15/cv2/cv2.0/cv3/conv/Conv_output_0: 3d6c38f6
/model.21/cv2/cv2.0/cv1/act/Mul_output_0: 3d5d637e
/model.19/cv1/conv/Conv_output_0: 3d75b004
/model.22/cv3.2/cv3.2.0/act/Mul_output_0: 3d9e748e
/model.18/cv3/cv3.0/cv3/act/Mul_output_0: 3d8c0644
/model.15/cv3/cv3.0/m/m.2/cv2/act/Sigmoid_output_0: 3c0101fc
/model.18/Slice_1_output_0: 3d77d374
/model.21/cv2/cv2.0/m/m.0/cv2/conv/Conv_output_0: 3d6de0f7
/model.15/cv2/cv2.0/m/m.1/cv2/conv/Conv_output_0: 3d281eba
/model.15/cv2/cv2.1/conv/Conv_output_0: 3d3e3847
/model.15/cv3/cv3.0/m/m.2/cv2/conv/Conv_output_0: 3e055c28
/model.22/cv3.2/cv3.2.1/act/Mul_output_0: 3e5b4bad
/model.18/cv4/act/Mul_output_0: 3d8ed2aa
/model.15/cv3/cv3.0/cv2/act/Sigmoid_output_0: 3c00fb2a
/model.18/cv3/cv3.0/m/m.2/cv2/act/Sigmoid_output_0: 3c00fd94
/model.22/cv2.2/cv2.2.0/act/Sigmoid_output_0: 3c010171
/model.15/cv2/cv2.0/Concat_output_0: 3d82c4d5
/model.21/cv2/cv2.0/m/m.2/cv2/act/Mul_output_0: 3da54546
/model.15/cv3/cv3.0/cv3/act/Sigmoid_output_0: 3c00daf7
/model.22/Constant_12_output_0_output: 3e810204
/model.15/cv3/cv3.0/m/m.1/cv1/act/Mul_output_0: 3d1c0854
/model.6/Slice_1_output_0: 3d3f3de7
/model.6/cv2/cv2.0/cv1/conv/Conv_output_0: 3d348204
/model.6/cv2/cv2.0/cv2/conv/Conv_output_0: 3d685f0f
/model.6/cv2/cv2.0/cv1/act/Sigmoid_output_0: 3c0087f2
/model.6/cv2/cv2.0/cv2/act/Sigmoid_output_0: 3c00e980
/model.6/cv2/cv2.0/cv1/act/Mul_output_0: 3d33d736
/model.6/cv2/cv2.0/cv2/act/Mul_output_0: 3d6832e7
/model.6/cv2/cv2.0/m/m.0/cv1/conv/Conv_output_0: 3d925eb1
/model.6/cv2/cv2.0/m/m.0/cv1/act/Sigmoid_output_0: 3c00e636
/model.6/cv2/cv2.0/m/m.0/cv1/act/Mul_output_0: 3d641fb4
/model.6/cv2/cv2.0/m/m.0/cv2/conv/Conv_output_0: 3d4e7337
/model.6/cv2/cv2.0/m/m.0/cv2/act/Sigmoid_output_0: 3c0090f3
/model.6/cv2/cv2.0/m/m.0/cv2/act/Mul_output_0: 3d365b8f
/model.6/cv2/cv2.0/m/m.0/Add_output_0: 3d3d5dff
/model.6/cv2/cv2.0/m/m.1/cv1/conv/Conv_output_0: 3d828026
/model.6/cv2/cv2.0/m/m.1/cv1/act/Sigmoid_output_0: 3c00c339
/model.6/cv2/cv2.0/m/m.1/cv1/act/Mul_output_0: 3d499e94
/model.6/cv2/cv2.0/m/m.1/cv2/conv/Conv_output_0: 3d5e1fe7
/model.6/cv2/cv2.0/m/m.1/cv2/act/Sigmoid_output_0: 3c00d469
/model.6/cv2/cv2.0/m/m.1/cv2/act/Mul_output_0: 3d540b09
/model.6/cv2/cv2.0/m/m.1/Add_output_0: 3d58e955
/model.6/cv2/cv2.0/m/m.2/cv1/conv/Conv_output_0: 3d83ab59
/model.6/cv2/cv2.0/m/m.2/cv1/act/Sigmoid_output_0: 3c006023
/model.6/cv2/cv2.0/m/m.2/cv1/act/Mul_output_0: 3d2a86bb
/model.6/cv2/cv2.0/m/m.2/cv2/conv/Conv_output_0: 3d27224e
/model.6/cv2/cv2.0/m/m.2/cv2/act/Sigmoid_output_0: 3c004997
/model.6/cv2/cv2.0/m/m.2/cv2/act/Mul_output_0: 3d263360
/model.6/cv2/cv2.0/m/m.2/Add_output_0: 3d8080eb
/model.6/cv2/cv2.0/Concat_output_0: 3d8080eb
/model.6/cv2/cv2.0/cv3/conv/Conv_output_0: 3d51f8a7
/model.6/cv2/cv2.0/cv3/act/Sigmoid_output_0: 3c00d0f2
/model.6/cv2/cv2.0/cv3/act/Mul_output_0: 3d51a8cb
/model.6/cv2/cv2.1/conv/Conv_output_0: 3d4027ce
/model.6/cv2/cv2.1/act/Sigmoid_output_0: 3c00a219
/model.6/cv2/cv2.1/act/Mul_output_0: 3d3bc34b
/model.6/cv3/cv3.0/cv1/conv/Conv_output_0: 3d4fcf02
/model.6/cv3/cv3.0/cv2/conv/Conv_output_0: 3de3aab9
/model.6/cv3/cv3.0/cv1/act/Sigmoid_output_0: 3c00cd8e
/model.6/cv3/cv3.0/cv2/act/Sigmoid_output_0: 3c0101fe
/model.6/cv3/cv3.0/cv1/act/Mul_output_0: 3d4f7a80
/model.6/cv3/cv3.0/cv2/act/Mul_output_0: 3de3aaae
/model.6/cv3/cv3.0/m/m.0/cv1/conv/Conv_output_0: 3db3f2dc
/model.6/cv3/cv3.0/m/m.0/cv1/act/Sigmoid_output_0: 3c01018b
/model.6/cv3/cv3.0/m/m.0/cv1/act/Mul_output_0: 3db3f233
/model.6/cv3/cv3.0/m/m.0/cv2/conv/Conv_output_0: 3d3bfdbc
/model.6/cv3/cv3.0/m/m.0/cv2/act/Sigmoid_output_0: 3bfe2dee
/model.6/cv3/cv3.0/m/m.0/cv2/act/Mul_output_0: 3d053c64
/model.6/cv3/cv3.0/m/m.0/Add_output_0: 3d4cf845
/model.6/cv3/cv3.0/m/m.1/cv1/conv/Conv_output_0: 3d7dc738
/model.6/cv3/cv3.0/m/m.1/cv1/act/Sigmoid_output_0: 3c00f563
/model.6/cv3/cv3.0/m/m.1/cv1/act/Mul_output_0: 3d7dae60
/model.6/cv3/cv3.0/m/m.1/cv2/conv/Conv_output_0: 3d4983c6
/model.6/cv3/cv3.0/m/m.1/cv2/act/Sigmoid_output_0: 3c00bbd8
/model.6/cv3/cv3.0/m/m.1/cv2/act/Mul_output_0: 3d45fd82
/model.6/cv3/cv3.0/m/m.1/Add_output_0: 3d82a569
/model.6/cv3/cv3.0/m/m.2/cv1/conv/Conv_output_0: 3d86119a
/model.6/cv3/cv3.0/m/m.2/cv1/act/Sigmoid_output_0: 3c00dcae
/model.6/cv3/cv3.0/m/m.2/cv1/act/Mul_output_0: 3d5a8cbd
/model.6/cv3/cv3.0/m/m.2/cv2/conv/Conv_output_0: 3d803022
/model.6/cv3/cv3.0/m/m.2/cv2/act/Sigmoid_output_0: 3c00f65d
/model.6/cv3/cv3.0/m/m.2/cv2/act/Mul_output_0: 3d80248e
/model.6/cv3/cv3.0/m/m.2/Add_output_0: 3d8ac76f
/model.6/cv3/cv3.0/Concat_output_0: 3de3aaae
/model.6/cv3/cv3.0/cv3/conv/Conv_output_0: 3d738ae6
/model.6/cv3/cv3.0/cv3/act/Sigmoid_output_0: 3c00eebf
/model.6/cv3/cv3.0/cv3/act/Mul_output_0: 3d700142
/model.6/cv3/cv3.1/conv/Conv_output_0: 3d751086
/model.6/cv3/cv3.1/act/Sigmoid_output_0: 3c00c118
/model.6/cv3/cv3.1/act/Mul_output_0: 3d488822
/model.6/Concat_output_0: 3d488822
/model.6/cv4/conv/Conv_output_0: 3d73fa61
/model.6/cv4/act/Sigmoid_output_0: 3c00d5d5
/model.6/cv4/act/Mul_output_0: 3d55126e
/model.7/AveragePool_output_0: 3d55126e
/model.7/cv1/conv/Conv_output_0: 3d698684
/model.7/cv1/act/Sigmoid_output_0: 3c00bcb1
/model.7/cv1/act/Mul_output_0: 3d46632c
/model.8/cv1/conv/Conv_output_0: 3da1d80d
/model.8/cv1/act/Sigmoid_output_0: 3c010092
/model.8/cv1/act/Mul_output_0: 3da1d63c
/model.19/cv1/act/Mul_output_0: 3d47579d
/model.22/cv3.2/cv3.2.0/conv/Conv_output_0: 3db8d971
/model.21/cv3/cv3.0/m/m.2/cv1/conv/Conv_output_0: 3daa927a
/model.15/cv3/cv3.0/m/m.2/cv2/act/Mul_output_0: 3ddea4fe
/model.22/cv3.2/cv3.2.1/act/Sigmoid_output_0: 3c010204
/model.15/cv3/cv3.0/Concat_output_0: 3dea8ecb
/model.22/cv2.2/cv2.2.2/Conv_output_0: 3da315f4
/model.21/cv2/cv2.0/m/m.2/cv1/act/Mul_output_0: 3d8b5f9f
/model.21/cv2/cv2.0/m/m.0/cv1/conv/Conv_output_0: 3da8f7b2
/model.15/cv2/cv2.0/m/m.1/Add_output_0: 3d529881
/model.15/cv3/cv3.0/m/m.2/Add_output_0: 3dea8ecb
/model.15/cv3/cv3.0/m/m.2/cv1/conv/Conv_output_0: 3d55de4f
/model.22/dfl/Softmax_output: 3bf7e042
/model.15/cv4/act/Sigmoid_output_0: 3c009628
/model.21/cv4/act/Mul_output_0: 3d7a0b92
/model.22/cv3.1/cv3.1.0/act/Mul_output_0: 3db75bb0
/model.21/cv2/cv2.0/m/m.2/Add_output_0: 3e102b36
/model.15/cv3/cv3.0/m/m.1/cv1/act/Sigmoid_output_0: 3c0007bd
/model.22/cv2.2/cv2.2.1/act/Mul_output_0: 3e9efb1e
/model.15/cv3/cv3.0/cv3/act/Mul_output_0: 3d5916e1
/model.18/cv3/cv3.0/m/m.1/cv1/act/Sigmoid_output_0: 3c00fcf7
/model.15/cv3/cv3.0/m/m.0/cv1/conv/Conv_output_0: 3d7b0b2e
/model.21/cv4/act/Sigmoid_output_0: 3c00f3e2
/model.18/cv3/cv3.0/cv3/act/Sigmoid_output_0: 3c00fc77
/model.8/Slice_output_0: 3d621beb
/model.15/cv3/cv3.0/m/m.1/cv2/act/Sigmoid_output_0: 3c00f5cd
/model.21/Concat_output_0: 3de4bbd7
/model.21/cv3/cv3.0/m/m.0/cv1/act/Mul_output_0: 3dd80737
/model.21/cv3/cv3.1/act/Sigmoid_output_0: 3c0101fe
/model.21/cv2/cv2.0/m/m.1/cv1/act/Sigmoid_output_0: 3c010078
/model.21/cv3/cv3.1/conv/Conv_output_0: 3df90183
/model.15/cv3/cv3.1/act/Sigmoid_output_0: 3c00f3e5
/model.21/cv3/cv3.0/cv3/act/Sigmoid_output_0: 3c00f04a
/model.15/cv4/conv/Conv_output_0: 3db0c3e1
/model.21/cv1/act/Mul_output_0: 3d6485dc
/model.15/cv3/cv3.1/conv/Conv_output_0: 3e26b206
/model.21/cv2/cv2.0/m/m.1/cv2/conv/Conv_output_0: 3d9a7c47
/model.21/cv2/cv2.0/m/m.1/cv2/act/Mul_output_0: 3d6986fc
/model.21/cv3/cv3.0/m/m.2/cv2/act/Mul_output_0: 3e041bd8
/model.15/cv3/cv3.1/act/Mul_output_0: 3d7a10bf
/model.15/cv2/cv2.1/act/Mul_output_0: 3d3db2f8
/model.18/cv3/cv3.0/m/m.1/Add_output_0: 3d8151e7
/model.15/Concat_output_0: 3d7a10bf
/model.18/cv3/cv3.0/m/m.2/cv1/conv/Conv_output_0: 3d9d2b5c
/model.21/cv3/cv3.0/m/m.2/cv1/act/Sigmoid_output_0: 3c00f690
/model.18/cv3/cv3.0/m/m.1/cv2/act/Mul_output_0: 3d6b6cf8
/model.18/cv4/conv/Conv_output_0: 3e895102
/model.15/cv3/cv3.0/cv3/conv/Conv_output_0: 3e288659
/model.21/cv3/cv3.0/m/m.1/Add_output_0: 3d906b92
/model.19/AveragePool_output_0: 3d8ed2aa
/model.8/Slice_1_output_0: 3da1d63c
/model.8/cv2/cv2.0/cv1/conv/Conv_output_0: 3d660bce
/model.8/cv2/cv2.0/cv2/conv/Conv_output_0: 3d9a792a
/model.8/cv2/cv2.0/cv1/act/Sigmoid_output_0: 3c00e7aa
/model.8/cv2/cv2.0/cv2/act/Sigmoid_output_0: 3c00ffbd
/model.8/cv2/cv2.0/cv1/act/Mul_output_0: 3d65dcd1
/model.8/cv2/cv2.0/cv2/act/Mul_output_0: 3d9a7671
/model.8/cv2/cv2.0/m/m.0/cv1/conv/Conv_output_0: 3d8fec73
/model.8/cv2/cv2.0/m/m.0/cv1/act/Sigmoid_output_0: 3c00e1e5
/model.8/cv2/cv2.0/m/m.0/cv1/act/Mul_output_0: 3d5f6ec3
/model.8/cv2/cv2.0/m/m.0/cv2/conv/Conv_output_0: 3d580ba5
/model.8/cv2/cv2.0/m/m.0/cv2/act/Sigmoid_output_0: 3c00d95d
/model.8/cv2/cv2.0/m/m.0/cv2/act/Mul_output_0: 3d57c790
/model.8/cv2/cv2.0/m/m.0/Add_output_0: 3d792f7f
/model.8/cv2/cv2.0/m/m.1/cv1/conv/Conv_output_0: 3d938dfd
/model.8/cv2/cv2.0/m/m.1/cv1/act/Sigmoid_output_0: 3c00fe7f
/model.8/cv2/cv2.0/m/m.1/cv1/act/Mul_output_0: 3d9389f7
/model.8/cv2/cv2.0/m/m.1/cv2/conv/Conv_output_0: 3d3be002
/model.8/cv2/cv2.0/m/m.1/cv2/act/Sigmoid_output_0: 3c00a0cd
/model.8/cv2/cv2.0/m/m.1/cv2/act/Mul_output_0: 3d3b526e
/model.8/cv2/cv2.0/m/m.1/Add_output_0: 3d8aacc9
/model.8/cv2/cv2.0/m/m.2/cv1/conv/Conv_output_0: 3da213b4
/model.8/cv2/cv2.0/m/m.2/cv1/act/Sigmoid_output_0: 3c00a32f
/model.8/cv2/cv2.0/m/m.2/cv1/act/Mul_output_0: 3d3c22cb
/model.8/cv2/cv2.0/m/m.2/cv2/conv/Conv_output_0: 3d281b81
/model.8/cv2/cv2.0/m/m.2/cv2/act/Sigmoid_output_0: 3bfd1b9a
/model.8/cv2/cv2.0/m/m.2/cv2/act/Mul_output_0: 3cf97e6c
/model.8/cv2/cv2.0/m/m.2/Add_output_0: 3d8dd7a5
/model.8/cv2/cv2.0/Concat_output_0: 3d9a7671
/model.8/cv2/cv2.0/cv3/conv/Conv_output_0: 3d9e36c5
/model.8/cv2/cv2.0/cv3/act/Sigmoid_output_0: 3c010037
/model.8/cv2/cv2.0/cv3/act/Mul_output_0: 3d9e3490
/model.8/cv2/cv2.1/conv/Conv_output_0: 3d81dc29
/model.8/cv2/cv2.1/act/Sigmoid_output_0: 3c00f784
/model.8/cv2/cv2.1/act/Mul_output_0: 3d81d197
/model.8/cv3/cv3.0/cv1/conv/Conv_output_0: 3d2cca88
/model.8/cv3/cv3.0/cv2/conv/Conv_output_0: 3d92466f
/model.8/cv3/cv3.0/cv1/act/Sigmoid_output_0: 3c001ee4
/model.8/cv3/cv3.0/cv2/act/Sigmoid_output_0: 3c00fafa
/model.8/cv3/cv3.0/cv1/act/Mul_output_0: 3d1f45f8
/model.8/cv3/cv3.0/cv2/act/Mul_output_0: 3d884da5
/model.8/cv3/cv3.0/m/m.0/cv1/conv/Conv_output_0: 3d99d1f3
/model.8/cv3/cv3.0/m/m.0/cv1/act/Sigmoid_output_0: 3c00e0c6
/model.8/cv3/cv3.0/m/m.0/cv1/act/Mul_output_0: 3d5e5209
/model.8/cv3/cv3.0/m/m.0/cv2/conv/Conv_output_0: 3d287032
/model.8/cv3/cv3.0/m/m.0/cv2/act/Sigmoid_output_0: 3c0050db
/model.8/cv3/cv3.0/m/m.0/cv2/act/Mul_output_0: 3d2788e3
/model.8/cv3/cv3.0/m/m.0/Add_output_0: 3d418b7f
/model.8/cv3/cv3.0/m/m.1/cv1/conv/Conv_output_0: 3d58ce02
/model.8/cv3/cv3.0/m/m.1/cv1/act/Sigmoid_output_0: 3c00d233
/model.8/cv3/cv3.0/m/m.1/cv1/act/Mul_output_0: 3d5280ff
/model.8/cv3/cv3.0/m/m.1/cv2/conv/Conv_output_0: 3d11d1dc
/model.8/cv3/cv3.0/m/m.1/cv2/act/Sigmoid_output_0: 3bff3d6b
/model.8/cv3/cv3.0/m/m.1/cv2/act/Mul_output_0: 3d10403f
/model.8/cv3/cv3.0/m/m.1/Add_output_0: 3d3bba42
/model.8/cv3/cv3.0/m/m.2/cv1/conv/Conv_output_0: 3d376f26
/model.8/cv3/cv3.0/m/m.2/cv1/act/Sigmoid_output_0: 3c006bd9
/model.8/cv3/cv3.0/m/m.2/cv1/act/Mul_output_0: 3d2d0185
/model.8/cv3/cv3.0/m/m.2/cv2/conv/Conv_output_0: 3d1bbc8b
/model.8/cv3/cv3.0/m/m.2/cv2/act/Sigmoid_output_0: 3bffeab3
/model.8/cv3/cv3.0/m/m.2/cv2/act/Mul_output_0: 3d19a963
/model.8/cv3/cv3.0/m/m.2/Add_output_0: 3d4ec751
/model.8/cv3/cv3.0/Concat_output_0: 3d884da5
/model.8/cv3/cv3.0/cv3/conv/Conv_output_0: 3d485f4f
/model.8/cv3/cv3.0/cv3/act/Sigmoid_output_0: 3c009a85
/model.8/cv3/cv3.0/cv3/act/Mul_output_0: 3d394414
/model.8/cv3/cv3.1/conv/Conv_output_0: 3d596eea
/model.8/cv3/cv3.1/act/Sigmoid_output_0: 3c00db11
/model.8/cv3/cv3.1/act/Mul_output_0: 3d592d45
/model.8/Concat_output_0: 3da1d63c
/model.8/cv4/conv/Conv_output_0: 3d73379a
/model.8/cv4/act/Sigmoid_output_0: 3c00f07e
/model.8/cv4/act/Mul_output_0: 3d731691
/model.9/cv1/conv/Conv_output_0: 3d5f2800
/model.9/cv1/act/Sigmoid_output_0: 3c00e166
/model.9/cv1/act/Mul_output_0: 3d5eef94
/model.9/cv2/MaxPool_output_0: 3d5eef94
/model.9/cv3/MaxPool_output_0: 3d5eef94
/model.9/cv4/MaxPool_output_0: 3d5eef94
/model.9/Concat_output_0: 3d5eef94
/model.9/cv5/conv/Conv_output_0: 3d768a9d
/model.9/cv5/act/Sigmoid_output_0: 3c00f236
/model.9/cv5/act/Mul_output_0: 3d766c69
/model.10/Resize_output_0: 3d766c69
/model.11/Concat_output_0: 3d766c69
/model.12/cv1/conv/Conv_output_0: 3d63cc7f
/model.12/cv1/act/Sigmoid_output_0: 3c00b688
/model.12/cv1/act/Mul_output_0: 3d439bad
/model.21/cv2/cv2.0/m/m.0/Add_output_0: 3d88113f
/model.22/Reshape_2_output_0: 3e55228a
/model.21/cv3/cv3.0/m/m.1/cv2/act/Sigmoid_output_0: 3c00fa9f
/model.15/cv3/cv3.0/cv1/act/Mul_output_0: 3cad07f1
/model.18/Slice_output_0: 3d7aeca8
/model.15/cv3/cv3.0/m/m.0/cv2/act/Sigmoid_output_0: 3c003991
/model.21/cv3/cv3.0/m/m.1/cv1/act/Mul_output_0: 3da45262
/model.15/cv4/act/Mul_output_0: 3d37e85e
/model.16/cv1/act/Sigmoid_output_0: 3c00dbd6
/model.15/cv2/cv2.1/act/Sigmoid_output_0: 3c00a79b
/model.18/cv4/act/Sigmoid_output_0: 3c00fd58
/model.21/Slice_1_output_0: 3d54a480
/model.21/cv3/cv3.0/m/m.1/cv1/act/Sigmoid_output_0: 3c0100c5
/model.22/cv3.0/cv3.0.0/act/Sigmoid_output_0: 3c00f74c
/model.21/cv3/cv3.0/m/m.0/Add_output_0: 3d7ecaef
/model.21/cv2/cv2.1/conv/Conv_output_0: 3d9860da
/model.22/cv2.0/cv2.0.0/conv/Conv_output_0: 3db64bb3
/model.15/cv3/cv3.0/m/m.1/Add_output_0: 3d7ef1de
/model.16/AveragePool_output_0: 3d37e85e
/model.18/cv3/cv3.0/m/m.2/cv2/act/Mul_output_0: 3d8fb729
/model.21/cv3/cv3.0/cv2/conv/Conv_output_0: 3d8ccba6
/model.22/cv3.0/cv3.0.0/conv/Conv_output_0: 3dc83618
/model.21/cv3/cv3.0/m/m.0/cv2/conv/Conv_output_0: 3d7a2536
/model.15/cv3/cv3.0/m/m.1/cv2/conv/Conv_output_0: 3d7edaa3
/model.12/Slice_output_0: 3d439bad
/model.15/cv3/cv3.0/m/m.0/cv2/conv/Conv_output_0: 3d2fe361
/model.21/cv2/cv2.0/m/m.0/cv1/act/Sigmoid_output_0: 3c00fefd
/model.21/cv3/cv3.0/m/m.0/cv1/act/Sigmoid_output_0: 3c0101f7
/model.21/cv4/conv/Conv_output_0: 3e1eb32d
/model.22/dfl/conv/Conv_output_0: 3dea88a0
/model.22/cv2.1/cv2.1.0/conv/Conv_output_0: 3db8a12e
/model.16/cv1/conv/Conv_output_0: 3d76d84f
/model.20/Concat_output_0: 3d766c69
/model.22/cv3.1/cv3.1.1/act/Sigmoid_output_0: 3c010204
/model.22/cv3.2/cv3.2.2/Conv_output_0: 3e55228a
/model.22/cv2.0/cv2.0.0/act/Sigmoid_output_0: 3c00f80d
/model.21/cv3/cv3.0/m/m.2/cv1/act/Mul_output_0: 3d806c3d
/model.21/cv3/cv3.0/cv2/act/Mul_output_0: 3d8cc5df
/model.22/Concat_1_output_0: 3e7ad827
/model.22/cv2.0/cv2.0.0/act/Mul_output_0: 3d82b29d
/model.21/cv1/conv/Conv_output_0: 3d769d22
/model.21/cv2/cv2.0/m/m.1/cv2/act/Sigmoid_output_0: 3c00ea7b
/model.22/cv3.0/cv3.0.0/act/Mul_output_0: 3d8177af
/model.21/cv3/cv3.0/cv1/act/Sigmoid_output_0: 3c00aa23
output0: 40a57f3c
/model.21/cv2/cv2.0/m/m.1/cv1/act/Mul_output_0: 3da0cef8
/model.18/cv3/cv3.0/m/m.1/cv1/act/Mul_output_0: 3d8d8a30
/model.18/cv3/cv3.0/m/m.1/cv2/act/Sigmoid_output_0: 3c00ebd2
/model.15/cv2/cv2.0/m/m.1/cv2/act/Sigmoid_output_0: 3bffb69b
/model.12/Slice_1_output_0: 3d3124c6
/model.12/cv2/cv2.0/cv1/conv/Conv_output_0: 3d698193
/model.12/cv2/cv2.0/cv2/conv/Conv_output_0: 3d77b0c5
/model.12/cv2/cv2.0/cv1/act/Sigmoid_output_0: 3c0096bd
/model.12/cv2/cv2.0/cv2/act/Sigmoid_output_0: 3c00f2c4
/model.12/cv2/cv2.0/cv1/act/Mul_output_0: 3d38162f
/model.12/cv2/cv2.0/cv2/act/Mul_output_0: 3d77937c
/model.12/cv2/cv2.0/m/m.0/cv1/conv/Conv_output_0: 3d8af6a5
/model.12/cv2/cv2.0/m/m.0/cv1/act/Sigmoid_output_0: 3c00fb76
/model.12/cv2/cv2.0/m/m.0/cv1/act/Mul_output_0: 3d896b06
/model.12/cv2/cv2.0/m/m.0/cv2/conv/Conv_output_0: 3d4371c1
/model.12/cv2/cv2.0/m/m.0/cv2/act/Sigmoid_output_0: 3bfd386b
/model.12/cv2/cv2.0/m/m.0/cv2/act/Mul_output_0: 3cfb1a7c
/model.12/cv2/cv2.0/m/m.0/Add_output_0: 3d474bc8
/model.12/cv2/cv2.0/m/m.1/cv1/conv/Conv_output_0: 3d78cf1e
/model.12/cv2/cv2.0/m/m.1/cv1/act/Sigmoid_output_0: 3c00bf2f
/model.12/cv2/cv2.0/m/m.1/cv1/act/Mul_output_0: 3d479557
/model.12/cv2/cv2.0/m/m.1/cv2/conv/Conv_output_0: 3d467364
/model.12/cv2/cv2.0/m/m.1/cv2/act/Sigmoid_output_0: 3c00bbee
/model.12/cv2/cv2.0/m/m.1/cv2/act/Mul_output_0: 3d460793
/model.12/cv2/cv2.0/m/m.1/Add_output_0: 3d67c8e0
/model.12/cv2/cv2.0/m/m.2/cv1/conv/Conv_output_0: 3d80337a
/model.12/cv2/cv2.0/m/m.2/cv1/act/Sigmoid_output_0: 3c00d7ba
/model.12/cv2/cv2.0/m/m.2/cv1/act/Mul_output_0: 3d567f65
/model.12/cv2/cv2.0/m/m.2/cv2/conv/Conv_output_0: 3d82f9a8
/model.12/cv2/cv2.0/m/m.2/cv2/act/Sigmoid_output_0: 3c00f831
/model.12/cv2/cv2.0/m/m.2/cv2/act/Mul_output_0: 3d82efae
/model.12/cv2/cv2.0/m/m.2/Add_output_0: 3dab7c6b
/model.12/cv2/cv2.0/Concat_output_0: 3dab7c6b
/model.12/cv2/cv2.0/cv3/conv/Conv_output_0: 3d75f88e
/model.12/cv2/cv2.0/cv3/act/Sigmoid_output_0: 3c00e4f8
/model.12/cv2/cv2.0/cv3/act/Mul_output_0: 3d62b3dc
/model.12/cv2/cv2.1/conv/Conv_output_0: 3d651983
/model.12/cv2/cv2.1/act/Sigmoid_output_0: 3c00d7a0
/model.12/cv2/cv2.1/act/Mul_output_0: 3d566bae
/model.12/cv3/cv3.0/cv1/conv/Conv_output_0: 3d5bc339
/model.12/cv3/cv3.0/cv2/conv/Conv_output_0: 3d9d4cb9
/model.12/cv3/cv3.0/cv1/act/Sigmoid_output_0: 3c00ddc7
/model.12/cv3/cv3.0/cv2/act/Sigmoid_output_0: 3c01001d
/model.12/cv3/cv3.0/cv1/act/Mul_output_0: 3d5b857e
/model.12/cv3/cv3.0/cv2/act/Mul_output_0: 3d9d4a68
/model.12/cv3/cv3.0/m/m.0/cv1/conv/Conv_output_0: 3dc4cfec
/model.12/cv3/cv3.0/m/m.0/cv1/act/Sigmoid_output_0: 3c01011d
/model.12/cv3/cv3.0/m/m.0/cv1/act/Mul_output_0: 3da96d21
/model.12/cv3/cv3.0/m/m.0/cv2/conv/Conv_output_0: 3d8adffd
/model.12/cv3/cv3.0/m/m.0/cv2/act/Sigmoid_output_0: 3c00fc09
/model.12/cv3/cv3.0/m/m.0/cv2/act/Mul_output_0: 3d8ad98d
/model.12/cv3/cv3.0/m/m.0/Add_output_0: 3d9e7b63
/model.12/cv3/cv3.0/m/m.1/cv1/conv/Conv_output_0: 3d9e4a31
/model.12/cv3/cv3.0/m/m.1/cv1/act/Sigmoid_output_0: 3c010039
/model.12/cv3/cv3.0/m/m.1/cv1/act/Mul_output_0: 3d9e47ff
/model.12/cv3/cv3.0/m/m.1/cv2/conv/Conv_output_0: 3d687e80
/model.12/cv3/cv3.0/m/m.1/cv2/act/Sigmoid_output_0: 3c00e054
/model.12/cv3/cv3.0/m/m.1/cv2/act/Mul_output_0: 3d5de370
/model.12/cv3/cv3.0/m/m.1/Add_output_0: 3db0471c
/model.12/cv3/cv3.0/m/m.2/cv1/conv/Conv_output_0: 3daca508
/model.12/cv3/cv3.0/m/m.2/cv1/act/Sigmoid_output_0: 3c00fa81
/model.12/cv3/cv3.0/m/m.2/cv1/act/Mul_output_0: 3d8746d1
/model.12/cv3/cv3.0/m/m.2/cv2/conv/Conv_output_0: 3d82e5e7
/model.12/cv3/cv3.0/m/m.2/cv2/act/Sigmoid_output_0: 3c00db58
/model.12/cv3/cv3.0/m/m.2/cv2/act/Mul_output_0: 3d5968b2
/model.12/cv3/cv3.0/m/m.2/Add_output_0: 3db67bd1
/model.12/cv3/cv3.0/Concat_output_0: 3db67bd1
/model.12/cv3/cv3.0/cv3/conv/Conv_output_0: 3d7da40c
/model.12/cv3/cv3.0/cv3/act/Sigmoid_output_0: 3c00f555
/model.12/cv3/cv3.0/cv3/act/Mul_output_0: 3d7d8b1b
/model.12/cv3/cv3.1/conv/Conv_output_0: 3d6d2a9e
/model.12/cv3/cv3.1/act/Sigmoid_output_0: 3c00e9c8
/model.12/cv3/cv3.1/act/Mul_output_0: 3d6892c6
/model.12/Concat_output_0: 3d6892c6
/model.12/cv4/conv/Conv_output_0: 3d57a9d2
/model.12/cv4/act/Sigmoid_output_0: 3c002bc7
/model.12/cv4/act/Mul_output_0: 3d21390f
/model.13/Resize_output_0: 3d21390f
/model.14/Concat_output_0: 3d6d4d85
/model.15/cv1/conv/Conv_output_0: 3d62ff97
/model.15/cv1/act/Sigmoid_output_0: 3bfebf41
/model.15/cv1/act/Mul_output_0: 3d0ab508
/model.22/cv3.1/cv3.1.1/act/Mul_output_0: 3eab9625
/model.22/cv2.2/cv2.2.1/conv/Conv_output_0: 3e9efb1e
/model.21/cv2/cv2.0/m/m.1/Add_output_0: 3d99dcf4
/model.21/cv3/cv3.0/cv2/act/Sigmoid_output_0: 3c00fcb8
/model.21/cv2/cv2.1/act/Mul_output_0: 3d985dc7
/model.21/cv3/cv3.0/m/m.1/cv2/act/Mul_output_0: 3d8786df
/model.21/cv2/cv2.1/act/Sigmoid_output_0: 3c00ff6a
/model.16/cv1/act/Mul_output_0: 3d59d229
/model.21/cv3/cv3.0/m/m.0/cv2/act/Sigmoid_output_0: 3c00f3e2
/model.22/cv3.0/cv3.0.1/conv/Conv_output_0: 3ecc1100
/model.22/cv2.0/cv2.0.1/conv/Conv_output_0: 3e961217
/model.15/cv2/cv2.0/m/m.2/cv2/conv/Conv_output_0: 3d444d3f
/model.21/cv2/cv2.0/cv3/act/Sigmoid_output_0: 3c0101cc
/model.21/cv2/cv2.0/cv2/act/Mul_output_0: 3d84477c
/model.15/cv3/cv3.0/cv2/conv/Conv_output_0: 3d88c063
/model.15/cv3/cv3.0/cv2/act/Mul_output_0: 3d88b920
/model.22/Reshape_output_0: 3e4ccf4d
/model.21/Slice_output_0: 3d6485dc
/model.21/cv3/cv3.0/m/m.2/Add_output_0: 3e04ea30
/model.22/cv2.1/cv2.1.2/Conv_output_0: 3dd80be2
/model.22/Concat_output_0: 3e4ccf4d
/model.19/cv1/act/Sigmoid_output_0: 3c00beb1
/model.22/dfl/Transpose_output_0: 3df1bf23
/model.18/cv1/act/Mul_output_0: 3d7aeca8
/model.15/Slice_output_0: 3d0ab508
/model.22/cv2.0/cv2.0.2/Conv_output_0: 3df1bf23
/model.22/cv2.0/cv2.0.1/act/Mul_output_0: 3e961217
/model.21/cv2/cv2.0/Concat_output_0: 3e102b36
/model.21/cv2/cv2.0/m/m.1/cv1/conv/Conv_output_0: 3da0d0e6
/model.21/cv2/cv2.0/m/m.2/cv2/act/Sigmoid_output_0: 3c0100d7
/model.15/cv3/cv3.0/m/m.0/Add_output_0: 3d4a5204
/model.21/cv3/cv3.0/m/m.1/cv2/conv/Conv_output_0: 3d878ea3
/model.22/cv2.1/cv2.1.1/act/Mul_output_0: 3e94a771
/model.18/cv1/act/Sigmoid_output_0: 3c00f443
/model.22/cv3.0/cv3.0.2/Conv_output_0: 3e4ccf4d
/model.21/cv3/cv3.0/m/m.0/cv1/conv/Conv_output_0: 3dd8074d
/model.22/cv3.0/cv3.0.1/act/Mul_output_0: 3ea7f4a2
/model.21/cv2/cv2.0/m/m.2/cv2/conv/Conv_output_0: 3da546c8
/model.18/cv1/conv/Conv_output_0: 3d936620
ONNXTRT_Broadcast_599_output: 3e810204
/model.22/Slice_1_output_0: 3dea88a0
/model.22/cv2.1/cv2.1.0/act/Sigmoid_output_0: 3c0100ce
/model.22/cv3.0/cv3.0.1/act/Sigmoid_output_0: 3c010204
/model.21/cv2/cv2.0/m/m.2/cv1/act/Sigmoid_output_0: 3c00fc3b
/model.22/cv2.0/cv2.0.1/act/Sigmoid_output_0: 3c010204
/model.21/cv3/cv3.0/cv1/conv/Conv_output_0: 3d3f22ee
/model.21/cv2/cv2.0/m/m.0/cv2/act/Mul_output_0: 3d55320a
/model.21/cv3/cv3.1/act/Mul_output_0: 3de4bbd7
/model.17/Concat_output_0: 3d59d229
/model.15/Slice_1_output_0: 3ce99d39
/model.15/cv2/cv2.0/cv1/conv/Conv_output_0: 3d0a3176
/model.15/cv2/cv2.0/cv2/conv/Conv_output_0: 3d6282fa
/model.15/cv2/cv2.0/cv1/act/Sigmoid_output_0: 3bfe8265
/model.15/cv2/cv2.0/cv2/act/Sigmoid_output_0: 3c00a980
/model.15/cv2/cv2.0/cv1/act/Mul_output_0: 3d0850af
/model.15/cv2/cv2.0/cv2/act/Mul_output_0: 3d3e6442
/model.15/cv2/cv2.0/m/m.0/cv1/conv/Conv_output_0: 3d32f5d6
/model.15/cv2/cv2.0/m/m.0/cv1/act/Sigmoid_output_0: 3bfef03e
/model.15/cv2/cv2.0/m/m.0/cv1/act/Mul_output_0: 3d0cc137
/model.15/cv2/cv2.0/m/m.0/cv2/conv/Conv_output_0: 3d0e1aee
/model.15/cv2/cv2.0/m/m.0/cv2/act/Sigmoid_output_0: 3bfb4c7b
/model.15/cv2/cv2.0/m/m.0/cv2/act/Mul_output_0: 3ce38d20
/model.15/cv2/cv2.0/m/m.0/Add_output_0: 3d14cd8e
/model.15/cv2/cv2.0/m/m.1/cv1/conv/Conv_output_0: 3d543f6a
/model.15/cv2/cv2.0/m/m.1/cv1/act/Sigmoid_output_0: 3bfe9bf6
