TRT-101200-MinMaxCalibration
images: 3c010204
/model.0/conv/Conv_output_0: 3ef21d3c
/model.0/act/Sigmoid_output_0: 3c010204
/model.0/act/Mul_output_0: 3ef21d3c
/model.1/conv/Conv_output_0: 3ef9da95
/model.1/act/Sigmoid_output_0: 3c010204
/model.1/act/Mul_output_0: 3ede180a
/model.2/cv1/conv/Conv_output_0: 3efefb87
/model.2/cv1/act/Sigmoid_output_0: 3c010204
/model.2/cv1/act/Mul_output_0: 3e57e2af
/model.2/Split_output_0: 3e57e2af
/model.2/Split_output_1: 3dba2d77
/model.2/m.0/cv1/conv/Conv_output_0: 3e0d9767
/model.2/m.0/cv1/act/Sigmoid_output_0: 3c0101af
/model.2/m.0/cv1/act/Mul_output_0: 3db9ad09
/model.2/m.0/cv2/conv/Conv_output_0: 3e218f1d
/model.2/m.0/cv2/act/Sigmoid_output_0: 3c010204
/model.2/m.0/cv2/act/Mul_output_0: 3e024fe3
/model.2/m.0/Add_output_0: 3e0b7efd
/model.2/Concat_output_0: 3e57e2af
/model.2/cv2/conv/Conv_output_0: 3e10585d
/model.2/cv2/act/Sigmoid_output_0: 3c010154
/model.2/cv2/act/Mul_output_0: 3dadab2d
/model.3/conv/Conv_output_0: 3d7fb332
/model.3/act/Sigmoid_output_0: 3c00eaae
/model.3/act/Mul_output_0: 3d69cd4a
/model.4/cv1/conv/Conv_output_0: 3d846f69
/model.4/cv1/act/Sigmoid_output_0: 3c0027ec
/model.4/cv1/act/Mul_output_0: 3d20a07f
/model.4/Split_output_0: 3d20a07f
/model.4/Split_output_1: 3cd1e5da
/model.4/m.0/cv1/conv/Conv_output_0: 3d88eb32
/model.4/m.0/cv1/act/Sigmoid_output_0: 3c00acd7
/model.4/m.0/cv1/act/Mul_output_0: 3d3fa69b
/model.4/m.0/cv2/conv/Conv_output_0: 3d707f2e
/model.4/m.0/cv2/act/Sigmoid_output_0: 3c00b34d
/model.4/m.0/cv2/act/Mul_output_0: 3d423ce5
/model.4/m.0/Add_output_0: 3d431105
/model.4/m.1/cv1/conv/Conv_output_0: 3d65d953
/model.4/m.1/cv1/act/Sigmoid_output_0: 3bff8c94
/model.4/m.1/cv1/act/Mul_output_0: 3d143c53
/model.4/m.1/cv2/conv/Conv_output_0: 3d79df3a
/model.4/m.1/cv2/act/Sigmoid_output_0: 3c00ed18
/model.4/m.1/cv2/act/Mul_output_0: 3d6d57f1
/model.4/m.1/Add_output_0: 3d72796b
/model.4/Concat_output_0: 3d72796b
/model.4/cv2/conv/Conv_output_0: 3d7a9839
/model.4/cv2/act/Sigmoid_output_0: 3c007bc9
/model.4/cv2/act/Mul_output_0: 3d30b548
/model.5/cv1/conv/Conv_output_0: 3d87a14d
/model.5/cv1/act/Sigmoid_output_0: 3c00c247
/model.5/cv1/act/Mul_output_0: 3d492216
/model.5/cv2/conv/Conv_output_0: 3ddbc647
/model.6/cv1/conv/Conv_output_0: 3d90b2c5
/model.6/cv1/act/Sigmoid_output_0: 3c00fa7c
/model.6/cv1/act/Mul_output_0: 3d873ba7
/model.6/Split_output_0: 3d873ba7
/model.6/Split_output_1: 3d0e6d11
/model.6/m.0/cv1/conv/Conv_output_0: 3d681304
/model.6/m.0/cv1/act/Sigmoid_output_0: 3c00a982
/model.6/m.0/cv1/act/Mul_output_0: 3d3e64d9
/model.6/m.0/cv2/conv/Conv_output_0: 3d22957d
/model.6/m.0/cv2/act/Sigmoid_output_0: 3c001231
/model.6/m.0/cv2/act/Mul_output_0: 3d1d74d9
/model.6/m.0/Add_output_0: 3d152865
/model.6/m.1/cv1/conv/Conv_output_0: 3d40b00b
/model.6/m.1/cv1/act/Sigmoid_output_0: 3c009ea1
/model.6/m.1/cv1/act/Mul_output_0: 3d3a9927
/model.6/m.1/cv2/conv/Conv_output_0: 3db03faf
/model.6/m.1/cv2/act/Sigmoid_output_0: 3c00f1e6
/model.6/m.1/cv2/act/Mul_output_0: 3d75ca74
/model.6/m.1/Add_output_0: 3d93fa0c
/model.6/Concat_output_0: 3d93fa0c
/model.6/cv2/conv/Conv_output_0: 3d5c61f4
/model.6/cv2/act/Sigmoid_output_0: 3c00ddbe
/model.6/cv2/act/Mul_output_0: 3d5b7dbf
/model.7/cv1/conv/Conv_output_0: 3d6f07cb
/model.7/cv1/act/Sigmoid_output_0: 3c00e83a
/model.7/cv1/act/Mul_output_0: 3d668eea
/model.7/cv2/conv/Conv_output_0: 3dce4953
/model.8/cv1/conv/Conv_output_0: 3d56f674
/model.8/cv1/act/Sigmoid_output_0: 3c00d7fa
/model.8/cv1/act/Mul_output_0: 3d56b068
/model.8/Split_output_0: 3d56b068
/model.8/Split_output_1: 3d2e24b2
/model.8/m.0/cv1/cv1.0/conv/Conv_output_0: 3d6f0f8c
/model.8/m.0/cv1/cv1.0/act/Sigmoid_output_0: 3c00a6b9
/model.8/m.0/cv1/cv1.0/act/Mul_output_0: 3d3d615c
/model.8/m.0/cv1/cv1.1/conv/Conv_output_0: 3d3a0ced
/model.8/m.0/cv1/cv1.1/act/Sigmoid_output_0: 3c009b2a
/model.8/m.0/cv1/cv1.1/act/Mul_output_0: 3d397898
/model.8/m.0/cv1/cv1.2/conv/Conv_output_0: 3dac0782
/model.8/m.0/cv1/cv1.2/act/Sigmoid_output_0: 3c010141
/model.8/m.0/cv1/cv1.2/act/Mul_output_0: 3dac067d
/model.8/m.0/cv1/cv1.3/conv/Conv_output_0: 3d42f162
/model.8/m.0/cv1/cv1.3/act/Sigmoid_output_0: 3c00b3e3
/model.8/m.0/cv1/cv1.3/act/Mul_output_0: 3d427b52
/model.8/m.0/cv1/cv1.4/conv/Conv_output_0: 3e0b907c
/model.8/m.0/cv1/cv1.4/act/Sigmoid_output_0: 3c010204
/model.8/m.0/cv1/cv1.4/act/Mul_output_0: 3e0b907c
/model.8/m.0/Add_output_0: 3e0ac6fa
/model.8/Concat_output_0: 3e0ac6fa
/model.8/cv2/conv/Conv_output_0: 3d5e57e2
/model.8/cv2/act/Sigmoid_output_0: 3c00e091
/model.8/cv2/act/Mul_output_0: 3d5e1e3b
/model.9/cv1/conv/Conv_output_0: 3d788436
/model.9/cv1/act/Sigmoid_output_0: 3c00f326
/model.9/cv1/act/Mul_output_0: 3d786793
/model.9/m/MaxPool_output_0: 3d786793
/model.9/m_1/MaxPool_output_0: 3d786793
/model.9/m_2/MaxPool_output_0: 3d786793
/model.9/Concat_output_0: 3d786793
/model.9/cv2/conv/Conv_output_0: 3d7d25c1
/model.9/cv2/act/Sigmoid_output_0: 3c00f522
/model.9/cv2/act/Mul_output_0: 3d7d0c79
/model.10/cv1/conv/Conv_output_0: 3d8bb906
/model.10/cv1/act/Sigmoid_output_0: 3c00fc5a
/model.10/cv1/act/Mul_output_0: 3d8bb2e3
/model.10/Split_output_0: 3d8bb2e3
/model.10/Split_output_1: 3d8b4b05
/model.10/attn/qkv/conv/Conv_output_0: 3d94c3e2
/model.10/attn/Reshape_output_0: 3d94c3e2
/model.10/attn/Split_output_0: 3d3a30df
/model.10/attn/Split_output_1: 3d706041
/model.10/attn/Split_output_2: 3d94c3e2
/model.10/attn/Transpose_output_0: 3d3a30df
/model.10/attn/Reshape_2_output_0: 3d94c3e2
/model.10/attn/MatMul_output_0: 3f0d0041
/model.10/attn/pe/conv/Conv_output_0: 3d6350da
/model.10/attn/Constant_1_output_0_output: 3ab671d7
ONNXTRT_Broadcast_output: 3ab671d7
/model.10/attn/Mul_output_0: 3dc767cf
/model.10/attn/Softmax_output: 3bb29eb5
/model.10/attn/Softmax_output_0: 3bb29eb5
/model.10/attn/Transpose_1_output_0: 3bb29eb5
/model.10/attn/MatMul_1_output_0: 3d4ad760
/model.10/attn/Reshape_1_output_0: 3d4ad760
/model.10/attn/Add_output_0: 3dcc7520
/model.10/attn/proj/conv/Conv_output_0: 3d6c093c
/model.10/Add_output_0: 3d9d1bb5
/model.10/ffn/ffn.0/conv/Conv_output_0: 3d8e2552
/model.10/ffn/ffn.0/act/Sigmoid_output_0: 3c00f6a7
/model.10/ffn/ffn.0/act/Mul_output_0: 3d808cda
/model.10/ffn/ffn.1/conv/Conv_output_0: 3d9d8931
/model.10/Add_1_output_0: 3d90e208
/model.10/Concat_output_0: 3d90e208
/model.10/cv2/conv/Conv_output_0: 3db90960
/model.10/cv2/act/Sigmoid_output_0: 3c0101ac
/model.10/cv2/act/Mul_output_0: 3db908e1
/model.11/Resize_output_0: 3db908e1
/model.12/Concat_output_0: 3db908e1
/model.13/cv1/conv/Conv_output_0: 3d977ece
/model.13/cv1/act/Sigmoid_output_0: 3c00ff44
/model.13/cv1/act/Mul_output_0: 3d977b92
/model.13/Split_output_0: 3d977b92
/model.13/Split_output_1: 3d2c1b4d
/model.13/m.0/cv1/conv/Conv_output_0: 3d5e6cbf
/model.13/m.0/cv1/act/Sigmoid_output_0: 3c00926c
/model.13/m.0/cv1/act/Mul_output_0: 3d36c9c1
/model.13/m.0/cv2/conv/Conv_output_0: 3d82aa61
/model.13/m.0/cv2/act/Sigmoid_output_0: 3c00f533
/model.13/m.0/cv2/act/Mul_output_0: 3d7d3578
/model.13/Concat_output_0: 3d977b92
/model.13/cv2/conv/Conv_output_0: 3d8ed9df
/model.13/cv2/act/Sigmoid_output_0: 3c00fd58
/model.13/cv2/act/Mul_output_0: 3d8ed4b2
/model.14/Resize_output_0: 3d8ed4b2
/model.15/Concat_output_0: 3d8ed4b2
/model.16/cv1/conv/Conv_output_0: 3d5ba4e4
/model.16/cv1/act/Sigmoid_output_0: 3bfe57bb
/model.16/cv1/act/Mul_output_0: 3d06ba5b
/model.16/Split_output_0: 3d06ba5b
/model.16/Split_output_1: 3cd50a6b
/model.16/m.0/cv1/conv/Conv_output_0: 3d36fc26
/model.16/m.0/cv1/act/Sigmoid_output_0: 3bfd9f9b
/model.16/m.0/cv1/act/Mul_output_0: 3d0096e8
/model.16/m.0/cv2/conv/Conv_output_0: 3d559b3b
/model.16/m.0/cv2/act/Sigmoid_output_0: 3c00cd5b
/model.16/m.0/cv2/act/Mul_output_0: 3d4f5ad9
/model.16/Concat_output_0: 3d4f5ad9
/model.16/cv2/conv/Conv_output_0: 3dbeb877
/model.16/cv2/act/Sigmoid_output_0: 3bff914b
/model.16/cv2/act/Mul_output_0: 3d147cce
/model.17/conv/Conv_output_0: 3d6dd13a
/model.23/one2one_cv2.0/one2one_cv2.0.0/conv/Conv_output_0: 3e054e2d
/model.23/one2one_cv3.0/one2one_cv3.0.0/one2one_cv3.0.0.0/conv/Conv_output_0: 3d845915
/model.17/act/Sigmoid_output_0: 3c00ed4e
/model.23/one2one_cv2.0/one2one_cv2.0.0/act/Sigmoid_output_0: 3c00ecd0
/model.23/one2one_cv3.0/one2one_cv3.0.0/one2one_cv3.0.0.0/act/Sigmoid_output_0: 3c00f8fa
/model.17/act/Mul_output_0: 3d6dab0c
/model.23/one2one_cv2.0/one2one_cv2.0.0/act/Mul_output_0: 3d6ce938
/model.23/one2one_cv3.0/one2one_cv3.0.0/one2one_cv3.0.0.0/act/Mul_output_0: 3d844fd0
/model.18/Concat_output_0: 3d8ed4b2
/model.23/one2one_cv2.0/one2one_cv2.0.1/conv/Conv_output_0: 3e872e1b
/model.23/one2one_cv3.0/one2one_cv3.0.0/one2one_cv3.0.0.1/conv/Conv_output_0: 3d9b32a6
/model.19/cv1/conv/Conv_output_0: 3de3e2f7
/model.23/one2one_cv2.0/one2one_cv2.0.1/act/Sigmoid_output_0: 3c010204
/model.23/one2one_cv3.0/one2one_cv3.0.0/one2one_cv3.0.0.1/act/Sigmoid_output_0: 3c00fe83
/model.19/cv1/act/Sigmoid_output_0: 3c0101fe
/model.23/one2one_cv2.0/one2one_cv2.0.1/act/Mul_output_0: 3e872e1b
/model.23/one2one_cv3.0/one2one_cv3.0.0/one2one_cv3.0.0.1/act/Mul_output_0: 3d9398de
/model.19/cv1/act/Mul_output_0: 3de3e2ec
/model.23/one2one_cv2.0/one2one_cv2.0.2/Conv_output_0: 3deb23f8
/model.23/one2one_cv3.0/one2one_cv3.0.1/one2one_cv3.0.1.0/conv/Conv_output_0: 3e09e108
/model.19/Split_output_0: 3de3e2ec
/model.19/Split_output_1: 3d29deb3
/model.23/one2one_cv3.0/one2one_cv3.0.1/one2one_cv3.0.1.0/act/Sigmoid_output_0: 3c010201
/model.19/m.0/cv1/conv/Conv_output_0: 3d745647
/model.23/one2one_cv3.0/one2one_cv3.0.1/one2one_cv3.0.1.0/act/Mul_output_0: 3df17aa4
/model.19/m.0/cv1/act/Sigmoid_output_0: 3c00f117
/model.23/one2one_cv3.0/one2one_cv3.0.1/one2one_cv3.0.1.1/conv/Conv_output_0: 3f05f24d
/model.19/m.0/cv1/act/Mul_output_0: 3d743638
/model.23/one2one_cv3.0/one2one_cv3.0.1/one2one_cv3.0.1.1/act/Sigmoid_output_0: 3c010204
/model.19/m.0/cv2/conv/Conv_output_0: 3dd5f649
/model.23/one2one_cv3.0/one2one_cv3.0.1/one2one_cv3.0.1.1/act/Mul_output_0: 3f00e72d
/model.19/m.0/cv2/act/Sigmoid_output_0: 3c01015f
/model.23/one2one_cv3.0/one2one_cv3.0.2/Conv_output_0: 3e4cf2b3
/model.19/m.0/cv2/act/Mul_output_0: 3daeb1dc
/model.23/Concat_output_0: 3e4cf2b3
/model.19/Concat_output_0: 3de3e2ec
/model.23/Reshape_output_0: 3e4cf2b3
/model.19/cv2/conv/Conv_output_0: 3de1f1ea
/model.19/cv2/act/Sigmoid_output_0: 3c00ffc5
/model.19/cv2/act/Mul_output_0: 3d9aa4da
/model.20/cv1/conv/Conv_output_0: 3da791b9
/model.23/one2one_cv2.1/one2one_cv2.1.0/conv/Conv_output_0: 3dc1091d
/model.23/one2one_cv3.1/one2one_cv3.1.0/one2one_cv3.1.0.0/conv/Conv_output_0: 3e21eaec
/model.20/cv1/act/Sigmoid_output_0: 3c0100ff
/model.23/one2one_cv2.1/one2one_cv2.1.0/act/Sigmoid_output_0: 3c00fff0
/model.23/one2one_cv3.1/one2one_cv3.1.0/one2one_cv3.1.0.0/act/Sigmoid_output_0: 3c010204
/model.20/cv1/act/Mul_output_0: 3da79067
/model.23/one2one_cv2.1/one2one_cv2.1.0/act/Mul_output_0: 3d9bdef1
/model.23/one2one_cv3.1/one2one_cv3.1.0/one2one_cv3.1.0.0/act/Mul_output_0: 3e21eaec
/model.20/cv2/conv/Conv_output_0: 3e067d4d
/model.23/one2one_cv2.1/one2one_cv2.1.1/conv/Conv_output_0: 3e505ca3
/model.23/one2one_cv3.1/one2one_cv3.1.0/one2one_cv3.1.0.1/conv/Conv_output_0: 3decf65d
/model.21/Concat_output_0: 3e067d4d
/model.23/one2one_cv2.1/one2one_cv2.1.1/act/Sigmoid_output_0: 3c010204
/model.23/one2one_cv3.1/one2one_cv3.1.0/one2one_cv3.1.0.1/act/Sigmoid_output_0: 3c00f2d0
/model.22/cv1/conv/Conv_output_0: 3db0dc23
/model.23/one2one_cv2.1/one2one_cv2.1.1/act/Mul_output_0: 3e505ca3
/model.23/one2one_cv3.1/one2one_cv3.1.0/one2one_cv3.1.0.1/act/Mul_output_0: 3d77adae
/model.22/cv1/act/Sigmoid_output_0: 3c00fe71
/model.23/one2one_cv2.1/one2one_cv2.1.2/Conv_output_0: 3dc47e62
/model.23/one2one_cv3.1/one2one_cv3.1.1/one2one_cv3.1.1.0/conv/Conv_output_0: 3e924608
/model.22/cv1/act/Mul_output_0: 3d9346b8
/model.23/one2one_cv3.1/one2one_cv3.1.1/one2one_cv3.1.1.0/act/Sigmoid_output_0: 3c010204
/model.22/Split_output_0: 3d8fcfe7
/model.22/Split_output_1: 3d9346b8
/model.23/one2one_cv3.1/one2one_cv3.1.1/one2one_cv3.1.1.0/act/Mul_output_0: 3e8712cf
/model.22/m.0/cv1/cv1.0/conv/Conv_output_0: 3d7039ce
/model.23/one2one_cv3.1/one2one_cv3.1.1/one2one_cv3.1.1.1/conv/Conv_output_0: 3e8daea2
/model.22/m.0/cv1/cv1.0/act/Sigmoid_output_0: 3c008913
/model.23/one2one_cv3.1/one2one_cv3.1.1/one2one_cv3.1.1.1/act/Sigmoid_output_0: 3c010204
/model.22/m.0/cv1/cv1.0/act/Mul_output_0: 3d342577
/model.23/one2one_cv3.1/one2one_cv3.1.1/one2one_cv3.1.1.1/act/Mul_output_0: 3e8daea2
/model.22/m.0/cv1/cv1.1/conv/Conv_output_0: 3d65d9aa
/model.23/one2one_cv3.1/one2one_cv3.1.2/Conv_output_0: 3e8c0e7e
/model.22/m.0/cv1/cv1.1/act/Sigmoid_output_0: 3c00e781
/model.23/Concat_1_output_0: 3e8c0e7e
/model.22/m.0/cv1/cv1.1/act/Mul_output_0: 3d65aa6e
/model.23/Reshape_1_output_0: 3e8c0e7e
/model.22/m.0/cv1/cv1.2/conv/Conv_output_0: 3da50720
/model.22/m.0/cv1/cv1.2/act/Sigmoid_output_0: 3c00fee3
/model.22/m.0/cv1/cv1.2/act/Mul_output_0: 3d9573b2
/model.22/m.0/cv1/cv1.3/conv/Conv_output_0: 3d9067be
/model.22/m.0/cv1/cv1.3/act/Sigmoid_output_0: 3c00fdbd
/model.22/m.0/cv1/cv1.3/act/Mul_output_0: 3d9062f5
/model.22/m.0/cv1/cv1.4/conv/Conv_output_0: 3dc1d9b3
/model.22/m.0/cv1/cv1.4/act/Sigmoid_output_0: 3c0101d2
/model.22/m.0/cv1/cv1.4/act/Mul_output_0: 3dc1d968
/model.22/m.0/Add_output_0: 3dbde1ce
/model.22/Concat_output_0: 3dbde1ce
/model.22/cv2/conv/Conv_output_0: 3daa9334
/model.22/cv2/act/Sigmoid_output_0: 3c00fd80
/model.22/cv2/act/Mul_output_0: 3d8f6a63
/model.23/one2one_cv2.2/one2one_cv2.2.0/conv/Conv_output_0: 3da3d274
/model.23/one2one_cv3.2/one2one_cv3.2.0/one2one_cv3.2.0.0/conv/Conv_output_0: 3e2cfb44
/model.23/one2one_cv2.2/one2one_cv2.2.0/act/Sigmoid_output_0: 3c00fb7d
/model.23/one2one_cv3.2/one2one_cv3.2.0/one2one_cv3.2.0.0/act/Sigmoid_output_0: 3c010204
/model.23/one2one_cv2.2/one2one_cv2.2.0/act/Mul_output_0: 3d897a8f
/model.23/one2one_cv3.2/one2one_cv3.2.0/one2one_cv3.2.0.0/act/Mul_output_0: 3e05d7e0
/model.23/one2one_cv2.2/one2one_cv2.2.1/conv/Conv_output_0: 3ea4dc63
/model.23/one2one_cv3.2/one2one_cv3.2.0/one2one_cv3.2.0.1/conv/Conv_output_0: 3dcb3605
/model.23/one2one_cv2.2/one2one_cv2.2.1/act/Sigmoid_output_0: 3c010204
/model.23/one2one_cv3.2/one2one_cv3.2.0/one2one_cv3.2.0.1/act/Sigmoid_output_0: 3c00f870
/model.23/one2one_cv2.2/one2one_cv2.2.1/act/Mul_output_0: 3ea4dc63
/model.23/one2one_cv3.2/one2one_cv3.2.0/one2one_cv3.2.0.1/act/Mul_output_0: 3d835bcb
/model.23/one2one_cv2.2/one2one_cv2.2.2/Conv_output_0: 3d99713f
/model.23/one2one_cv3.2/one2one_cv3.2.1/one2one_cv3.2.1.0/conv/Conv_output_0: 3e9027db
/model.23/one2one_cv3.2/one2one_cv3.2.1/one2one_cv3.2.1.0/act/Sigmoid_output_0: 3c010204
/model.23/one2one_cv3.2/one2one_cv3.2.1/one2one_cv3.2.1.0/act/Mul_output_0: 3e9027db
/model.23/one2one_cv3.2/one2one_cv3.2.1/one2one_cv3.2.1.1/conv/Conv_output_0: 3eb56fbe
/model.23/one2one_cv3.2/one2one_cv3.2.1/one2one_cv3.2.1.1/act/Sigmoid_output_0: 3c010204
/model.23/one2one_cv3.2/one2one_cv3.2.1/one2one_cv3.2.1.1/act/Mul_output_0: 3eb56fbe
/model.23/one2one_cv3.2/one2one_cv3.2.2/Conv_output_0: 3ebc4651
/model.23/Concat_2_output_0: 3ebc4651
/model.23/Reshape_2_output_0: 3ebc4651
/model.23/Concat_3_output_0: 3ebc4651
/model.23/Split_output_0: 3deb23f8
/model.23/Split_output_1: 3ebc4651
/model.23/dfl/Reshape_output_0: 3deb23f8
/model.23/Sigmoid_output_0: 3bfa3514
/model.23/dfl/Transpose_output_0: 3deb23f8
/model.23/dfl/Softmax_output: 3bf02e9f
/model.23/dfl/Softmax_output_0: 3bf02e9f
/model.23/dfl/conv/Conv_output_0: 3dcf8f57
/model.23/dfl/Reshape_1_output_0: 3dcf8f57
/model.23/Flatten_output_0: 3bfa3514
/model.23/GatherElements_output_0: 40a40e22
/model.23/Cast_2_output_0: 3f1f3e7d
/model.23/Flatten_1_output_0: 40a40e22
/model.23/GatherElements_1_output_0: 3bfa3514
/model.23/TopK_output_0: 40a1e496
/model.23/ReduceMax_output_0: 3bfa3514
/model.23/Sub_output_0: 3f1ff261
/model.23/Split_1_output_1: 3bfa3514
/model.23/Slice_output_0: 3dce1db3
/model.23/Concat_5_output_0: 40cb9128
/model.23/Constant_9_output_0_output: 3f204081
/model.23/Slice_1_output_0: 3dcf8f57
ONNXTRT_Broadcast_107_output: 3e810204
/model.23/Constant_11_output_0_output: 3e810204
/model.23/Mul_2_output_0: 40cb9128
/model.23/Concat_4_output_0: 3f238c2a
/model.23/Split_1_output_0: 40cb9128
/model.23/Add_1_output_0: 3f238c2a
/model.23/TopK_1_output_0: 3bfa3514
/model.23/Transpose_output_0: 40cb9128
/model.23/Constant_10_output_0_output: 3f204081
/model.23/Unsqueeze_1_output_0: 3bfa3514
output0: 40a323c3
/model.23/Reshape_4_output_0: 40a323c3
