TRT-101200-MinMaxCalibration
images: 3c010204
/model.0/conv/Conv_output_0: 3f1ca0b2
/model.0/act/Sigmoid_output_0: 3c010204
/model.0/act/Mul_output_0: 3f1ca0b2
/model.1/conv/Conv_output_0: 3f18670b
/model.1/act/Sigmoid_output_0: 3c010204
/model.1/act/Mul_output_0: 3f07b83b
/model.2/cv1/conv/Conv_output_0: 3f185ef3
/model.2/cv1/act/Sigmoid_output_0: 3c010204
/model.2/cv1/act/Mul_output_0: 3e4ad9c7
/model.2/Split_output_0: 3e4ad9c7
/model.2/Split_output_1: 3dd4d989
/model.2/m.0/cv1/conv/Conv_output_0: 3ddca998
/model.2/m.0/cv1/act/Sigmoid_output_0: 3c00eb4a
/model.2/m.0/cv1/act/Mul_output_0: 3d6aa901
/model.2/m.0/cv2/conv/Conv_output_0: 3e0baf5a
/model.2/m.0/cv2/act/Sigmoid_output_0: 3c010204
/model.2/m.0/cv2/act/Mul_output_0: 3e013206
/model.2/m.0/Add_output_0: 3e1c27c8
/model.2/Concat_output_0: 3e4ad9c7
/model.2/cv2/conv/Conv_output_0: 3e10509f
/model.2/cv2/act/Sigmoid_output_0: 3c00fce8
/model.2/cv2/act/Mul_output_0: 3d8d590a
/model.3/conv/Conv_output_0: 3dae6e61
/model.3/act/Sigmoid_output_0: 3c002fbc
/model.3/act/Mul_output_0: 3d21d83e
/model.4/cv1/conv/Conv_output_0: 3d806f00
/model.4/cv1/act/Sigmoid_output_0: 3c00f68a
/model.4/cv1/act/Mul_output_0: 3d806393
/model.4/Split_output_0: 3d806393
/model.4/Split_output_1: 3cffd2e8
/model.4/m.0/cv1/conv/Conv_output_0: 3d497c3d
/model.4/m.0/cv1/act/Sigmoid_output_0: 3c00bac9
/model.4/m.0/cv1/act/Mul_output_0: 3d45806b
/model.4/m.0/cv2/conv/Conv_output_0: 3d63017f
/model.4/m.0/cv2/act/Sigmoid_output_0: 3c00ab45
/model.4/m.0/cv2/act/Mul_output_0: 3d3f0d25
/model.4/m.0/Add_output_0: 3d6995ec
/model.4/Concat_output_0: 3d806393
/model.4/cv2/conv/Conv_output_0: 3d6611ee
/model.4/cv2/act/Sigmoid_output_0: 3c006151
/model.4/cv2/act/Mul_output_0: 3d2ac4b3
/model.5/conv/Conv_output_0: 3d72203e
/model.5/act/Sigmoid_output_0: 3c00efe5
/model.5/act/Mul_output_0: 3d71fe3b
/model.6/cv1/conv/Conv_output_0: 3d87df8a
/model.6/cv1/act/Sigmoid_output_0: 3c00fac5
/model.6/cv1/act/Mul_output_0: 3d87d7e9
/model.6/Split_output_0: 3d51c375
/model.6/Split_output_1: 3d87d7e9
/model.6/m.0/cv1/conv/Conv_output_0: 3d4758e9
/model.6/m.0/cv2/conv/Conv_output_0: 3d9c0688
/model.6/m.0/cv1/act/Sigmoid_output_0: 3c00bdd9
/model.6/m.0/cv2/act/Sigmoid_output_0: 3c00fff4
/model.6/m.0/cv1/act/Mul_output_0: 3d46ef93
/model.6/m.0/cv2/act/Mul_output_0: 3d9c040a
/model.6/m.0/m/m.0/cv1/conv/Conv_output_0: 3daef701
/model.6/m.0/m/m.0/cv1/act/Sigmoid_output_0: 3c010162
/model.6/m.0/m/m.0/cv1/act/Mul_output_0: 3daef625
/model.6/m.0/m/m.0/cv2/conv/Conv_output_0: 3d6ea0d0
/model.6/m.0/m/m.0/cv2/act/Sigmoid_output_0: 3c00d255
/model.6/m.0/m/m.0/cv2/act/Mul_output_0: 3d5297df
/model.6/m.0/m/m.0/Add_output_0: 3d89b14f
/model.6/m.0/m/m.1/cv1/conv/Conv_output_0: 3df079bc
/model.6/m.0/m/m.1/cv1/act/Sigmoid_output_0: 3c010201
/model.6/m.0/m/m.1/cv1/act/Mul_output_0: 3df079b6
/model.6/m.0/m/m.1/cv2/conv/Conv_output_0: 3e0a5cec
/model.6/m.0/m/m.1/cv2/act/Sigmoid_output_0: 3c010204
/model.6/m.0/m/m.1/cv2/act/Mul_output_0: 3e0a5cec
/model.6/m.0/m/m.1/Add_output_0: 3e108e86
/model.6/m.0/Concat_output_0: 3e108e86
/model.6/m.0/cv3/conv/Conv_output_0: 3dbd2ff1
/model.6/m.0/cv3/act/Sigmoid_output_0: 3c010177
/model.6/m.0/cv3/act/Mul_output_0: 3db15d5c
/model.6/Concat_output_0: 3db15d5c
/model.6/cv2/conv/Conv_output_0: 3d89f4d4
/model.6/cv2/act/Sigmoid_output_0: 3c00fbac
/model.6/cv2/act/Mul_output_0: 3d89ee0b
/model.7/conv/Conv_output_0: 3d8df8ab
/model.7/act/Sigmoid_output_0: 3c00fd17
/model.7/act/Mul_output_0: 3d8df33f
/model.8/cv1/conv/Conv_output_0: 3dbedf34
/model.8/cv1/act/Sigmoid_output_0: 3c0101c7
/model.8/cv1/act/Mul_output_0: 3dbededa
/model.8/Split_output_0: 3da05fb1
/model.8/Split_output_1: 3dbededa
/model.8/m.0/cv1/conv/Conv_output_0: 3dad74e7
/model.8/m.0/cv2/conv/Conv_output_0: 3d43bf10
/model.8/m.0/cv1/act/Sigmoid_output_0: 3c010152
/model.8/m.0/cv2/act/Sigmoid_output_0: 3c00b5ce
/model.8/m.0/cv1/act/Mul_output_0: 3dad73f7
/model.8/m.0/cv2/act/Mul_output_0: 3d434b6d
/model.8/m.0/m/m.0/cv1/conv/Conv_output_0: 3da31183
/model.8/m.0/m/m.0/cv1/act/Sigmoid_output_0: 3c0100ab
/model.8/m.0/m/m.0/cv1/act/Mul_output_0: 3da30fd0
/model.8/m.0/m/m.0/cv2/conv/Conv_output_0: 3dcf5ef8
/model.8/m.0/m/m.0/cv2/act/Sigmoid_output_0: 3c0101ee
/model.8/m.0/m/m.0/cv2/act/Mul_output_0: 3dcf5ed5
/model.8/m.0/m/m.0/Add_output_0: 3ddcd1e4
/model.8/m.0/m/m.1/cv1/conv/Conv_output_0: 3dd27d18
/model.8/m.0/m/m.1/cv1/act/Sigmoid_output_0: 3c0101f2
/model.8/m.0/m/m.1/cv1/act/Mul_output_0: 3dd27cfb
/model.8/m.0/m/m.1/cv2/conv/Conv_output_0: 3e3c05e7
/model.8/m.0/m/m.1/cv2/act/Sigmoid_output_0: 3c010204
/model.8/m.0/m/m.1/cv2/act/Mul_output_0: 3e3c05e7
/model.8/m.0/m/m.1/Add_output_0: 3e38946a
/model.8/m.0/Concat_output_0: 3e38946a
/model.8/m.0/cv3/conv/Conv_output_0: 3dc80cb3
/model.8/m.0/cv3/act/Sigmoid_output_0: 3c0101e2
/model.8/m.0/cv3/act/Mul_output_0: 3dc80c7e
/model.8/Concat_output_0: 3dc80c7e
/model.8/cv2/conv/Conv_output_0: 3d9dbffb
/model.8/cv2/act/Sigmoid_output_0: 3c00feb9
/model.8/cv2/act/Mul_output_0: 3d94a057
/model.9/cv1/conv/Conv_output_0: 3d729d17
/model.9/cv1/act/Sigmoid_output_0: 3c00f02a
/model.9/cv1/act/Mul_output_0: 3d727b84
/model.9/m/MaxPool_output_0: 3d727b84
/model.9/m_1/MaxPool_output_0: 3d727b84
/model.9/m_2/MaxPool_output_0: 3d727b84
/model.9/Concat_output_0: 3d727b84
/model.9/cv2/conv/Conv_output_0: 3d5ecdd2
/model.9/cv2/act/Sigmoid_output_0: 3c00e10a
/model.9/cv2/act/Mul_output_0: 3d5e94de
/model.10/cv1/conv/Conv_output_0: 3d82c18e
/model.10/cv1/act/Sigmoid_output_0: 3c00f810
/model.10/cv1/act/Mul_output_0: 3d82b777
/model.10/Split_output_0: 3d82b777
/model.10/Split_output_1: 3d66a759
/model.10/m/m.0/attn/qkv/conv/Conv_output_0: 3d6043d1
/model.10/m/m.0/attn/Reshape_output_0: 3d6043d1
/model.10/m/m.0/attn/Split_output_0: 3d33af57
/model.10/m/m.0/attn/Split_output_1: 3d530627
/model.10/m/m.0/attn/Split_output_2: 3d6043d1
/model.10/m/m.0/attn/Transpose_output_0: 3d33af57
/model.10/m/m.0/attn/Reshape_2_output_0: 3d6043d1
/model.10/m/m.0/attn/MatMul_output_0: 3f40ffbf
/model.10/m/m.0/attn/pe/conv/Conv_output_0: 3d53770b
/model.10/m/m.0/attn/Constant_1_output_0_output: 3ab671d7
ONNXTRT_Broadcast_output: 3ab671d7
/model.10/m/m.0/attn/Mul_output_0: 3e08788d
/model.10/m/m.0/attn/Softmax_output: 3bb57a5e
/model.10/m/m.0/attn/Softmax_output_0: 3bb57a5e
/model.10/m/m.0/attn/Transpose_1_output_0: 3bb57a5e
/model.10/m/m.0/attn/MatMul_1_output_0: 3d0fd883
/model.10/m/m.0/attn/Reshape_1_output_0: 3d0fd883
/model.10/m/m.0/attn/Add_output_0: 3d2a2ca9
/model.10/m/m.0/attn/proj/conv/Conv_output_0: 3d303ae9
/model.10/m/m.0/Add_output_0: 3d9b0423
/model.10/m/m.0/ffn/ffn.0/conv/Conv_output_0: 3d49f4a8
/model.10/m/m.0/ffn/ffn.0/act/Sigmoid_output_0: 3c003984
/model.10/m/m.0/ffn/ffn.0/act/Mul_output_0: 3d236dba
/model.10/m/m.0/ffn/ffn.1/conv/Conv_output_0: 3d12105b
/model.10/m/m.0/Add_1_output_0: 3d81d856
/model.10/Concat_output_0: 3d82b777
/model.10/cv2/conv/Conv_output_0: 3d880777
/model.10/cv2/act/Sigmoid_output_0: 3c00f451
/model.10/cv2/act/Mul_output_0: 3d7b0dae
/model.11/Resize_output_0: 3d7b0dae
/model.12/Concat_output_0: 3d89ee0b
/model.13/cv1/conv/Conv_output_0: 3d916ac4
/model.13/cv1/act/Sigmoid_output_0: 3c00fe05
/model.13/cv1/act/Mul_output_0: 3d916643
/model.13/Split_output_0: 3d916643
/model.13/Split_output_1: 3d4efa9b
/model.13/m.0/cv1/conv/Conv_output_0: 3e0050da
/model.13/m.0/cv1/act/Sigmoid_output_0: 3c010203
/model.13/m.0/cv1/act/Mul_output_0: 3e0050d9
/model.13/m.0/cv2/conv/Conv_output_0: 3dd0457d
/model.13/m.0/cv2/act/Sigmoid_output_0: 3c0101ef
/model.13/m.0/cv2/act/Mul_output_0: 3dd0455c
/model.13/m.0/Add_output_0: 3dcc7c9e
/model.13/Concat_output_0: 3dcc7c9e
/model.13/cv2/conv/Conv_output_0: 3d8fe1cd
/model.13/cv2/act/Sigmoid_output_0: 3c00f27b
/model.13/cv2/act/Mul_output_0: 3d76fab3
/model.14/Resize_output_0: 3d76fab3
/model.15/Concat_output_0: 3d76fab3
/model.16/cv1/conv/Conv_output_0: 3d87a788
/model.16/cv1/act/Sigmoid_output_0: 3c00eb17
/model.16/cv1/act/Mul_output_0: 3d6a6047
/model.16/Split_output_0: 3d5b6ea7
/model.16/Split_output_1: 3d6a6047
/model.16/m.0/cv1/conv/Conv_output_0: 3d907153
/model.16/m.0/cv1/act/Sigmoid_output_0: 3c00fdc0
/model.16/m.0/cv1/act/Mul_output_0: 3d906c8c
/model.16/m.0/cv2/conv/Conv_output_0: 3df81970
/model.16/m.0/cv2/act/Sigmoid_output_0: 3c0101b2
/model.16/m.0/cv2/act/Mul_output_0: 3dba39f3
/model.16/m.0/Add_output_0: 3dc5548b
/model.16/Concat_output_0: 3dc5548b
/model.16/cv2/conv/Conv_output_0: 3dbee409
/model.16/cv2/act/Sigmoid_output_0: 3c00f8d4
/model.16/cv2/act/Mul_output_0: 3d840b92
/model.17/conv/Conv_output_0: 3d8b9178
/model.23/cv4.0/cv4.0.0/conv/Conv_output_0: 3e3bdee2
/model.23/cv2.0/cv2.0.0/conv/Conv_output_0: 3d6c00ab
/model.23/cv3.0/cv3.0.0/cv3.0.0.0/conv/Conv_output_0: 3dc8d2c4
/model.17/act/Sigmoid_output_0: 3c00fc4b
/model.23/cv4.0/cv4.0.0/act/Sigmoid_output_0: 3c010202
/model.23/cv2.0/cv2.0.0/act/Sigmoid_output_0: 3c00cc4b
/model.23/cv3.0/cv3.0.0/cv3.0.0.0/act/Sigmoid_output_0: 3c0101e3
/model.17/act/Mul_output_0: 3d8b8b48
/model.23/cv4.0/cv4.0.0/act/Mul_output_0: 3df7d801
/model.23/cv2.0/cv2.0.0/act/Mul_output_0: 3d4eb432
/model.23/cv3.0/cv3.0.0/cv3.0.0.0/act/Mul_output_0: 3dc8d290
/model.18/Concat_output_0: 3d8b8b48
/model.23/cv4.0/cv4.0.1/conv/Conv_output_0: 3e0e15fe
/model.23/cv2.0/cv2.0.1/conv/Conv_output_0: 3e9441fc
/model.23/cv3.0/cv3.0.0/cv3.0.0.1/conv/Conv_output_0: 3d877291
/model.19/cv1/conv/Conv_output_0: 3d9cd360
/model.23/cv4.0/cv4.0.1/act/Sigmoid_output_0: 3c0101fe
/model.23/cv2.0/cv2.0.1/act/Sigmoid_output_0: 3c010204
/model.23/cv3.0/cv3.0.0/cv3.0.0.1/act/Sigmoid_output_0: 3c005c27
/model.19/cv1/act/Sigmoid_output_0: 3c00e969
/model.23/cv4.0/cv4.0.1/act/Mul_output_0: 3de4fe8e
/model.23/cv2.0/cv2.0.1/act/Mul_output_0: 3e9441fc
/model.23/cv3.0/cv3.0.0/cv3.0.0.1/act/Mul_output_0: 3d29b8a0
/model.19/cv1/act/Mul_output_0: 3d6814c7
/model.23/cv4.0/cv4.0.2/Conv_output_0: 3d6c63b7
/model.23/cv2.0/cv2.0.2/Conv_output_0: 3dbd468f
/model.23/cv3.0/cv3.0.1/cv3.0.1.0/conv/Conv_output_0: 3da5a1b2
/model.19/Split_output_0: 3d6814c7
/model.19/Split_output_1: 3cfc265e
/model.23/Reshape_output_0: 3d6c63b7
/model.23/cv3.0/cv3.0.1/cv3.0.1.0/act/Sigmoid_output_0: 3c0100de
/model.19/m.0/cv1/conv/Conv_output_0: 3d7e0c9f
/model.23/cv3.0/cv3.0.1/cv3.0.1.0/act/Mul_output_0: 3da5a038
/model.19/m.0/cv1/act/Sigmoid_output_0: 3c00ef60
/model.23/cv3.0/cv3.0.1/cv3.0.1.1/conv/Conv_output_0: 3dda9f38
/model.19/m.0/cv1/act/Mul_output_0: 3d711415
/model.23/cv3.0/cv3.0.1/cv3.0.1.1/act/Sigmoid_output_0: 3c0101f9
/model.19/m.0/cv2/conv/Conv_output_0: 3e2b4ed7
/model.23/cv3.0/cv3.0.1/cv3.0.1.1/act/Mul_output_0: 3dda9f26
/model.19/m.0/cv2/act/Sigmoid_output_0: 3c010122
/model.23/cv3.0/cv3.0.2/Conv_output_0: 3e1c093b
/model.19/m.0/cv2/act/Mul_output_0: 3da9d460
/model.23/Concat_1_output_0: 3e1c093b
/model.19/m.0/Add_output_0: 3da6920d
/model.23/Reshape_3_output_0: 3e1c093b
/model.19/Concat_output_0: 3da6920d
/model.19/cv2/conv/Conv_output_0: 3dfafc5d
/model.19/cv2/act/Sigmoid_output_0: 3c00eb51
/model.19/cv2/act/Mul_output_0: 3d6ab39d
/model.20/conv/Conv_output_0: 3d988731
/model.23/cv4.1/cv4.1.0/conv/Conv_output_0: 3d925408
/model.23/cv2.1/cv2.1.0/conv/Conv_output_0: 3dd13db9
/model.23/cv3.1/cv3.1.0/cv3.1.0.0/conv/Conv_output_0: 3d8aef38
/model.20/act/Sigmoid_output_0: 3c00fd4f
/model.23/cv4.1/cv4.1.0/act/Sigmoid_output_0: 3c00fe3a
/model.23/cv2.1/cv2.1.0/act/Sigmoid_output_0: 3c00ff20
/model.23/cv3.1/cv3.1.0/cv3.1.0.0/act/Sigmoid_output_0: 3c00fc0f
/model.20/act/Mul_output_0: 3d8eb2b6
/model.23/cv4.1/cv4.1.0/act/Mul_output_0: 3d924fbc
/model.23/cv2.1/cv2.1.0/act/Mul_output_0: 3d96b344
/model.23/cv3.1/cv3.1.0/cv3.1.0.0/act/Mul_output_0: 3d8ae8cf
/model.21/Concat_output_0: 3d8eb2b6
/model.23/cv4.1/cv4.1.1/conv/Conv_output_0: 3ddb23fe
/model.23/cv2.1/cv2.1.1/conv/Conv_output_0: 3ea6fa3f
/model.23/cv3.1/cv3.1.0/cv3.1.0.1/conv/Conv_output_0: 3d6f300f
/model.22/cv1/conv/Conv_output_0: 3d881deb
/model.23/cv4.1/cv4.1.1/act/Sigmoid_output_0: 3c0101fa
/model.23/cv2.1/cv2.1.1/act/Sigmoid_output_0: 3c010204
/model.23/cv3.1/cv3.1.0/cv3.1.0.1/act/Sigmoid_output_0: 3c00ee2a
/model.22/cv1/act/Sigmoid_output_0: 3c00f630
/model.23/cv4.1/cv4.1.1/act/Mul_output_0: 3ddb23ed
/model.23/cv2.1/cv2.1.1/act/Mul_output_0: 3ea6fa3f
/model.23/cv3.1/cv3.1.0/cv3.1.0.1/act/Mul_output_0: 3d6f0b42
/model.22/cv1/act/Mul_output_0: 3d7fce12
/model.23/cv4.1/cv4.1.2/Conv_output_0: 3d91206e
/model.23/cv2.1/cv2.1.2/Conv_output_0: 3dc0fe76
/model.23/cv3.1/cv3.1.1/cv3.1.1.0/conv/Conv_output_0: 3dcfc898
/model.22/Split_output_0: 3d7fce12
/model.22/Split_output_1: 3d4a195c
/model.23/Reshape_1_output_0: 3d91206e
/model.23/cv3.1/cv3.1.1/cv3.1.1.0/act/Sigmoid_output_0: 3c010155
/model.22/m.0/cv1/conv/Conv_output_0: 3d02372e
/model.22/m.0/cv2/conv/Conv_output_0: 3d4984ba
/model.23/cv3.1/cv3.1.1/cv3.1.1.0/act/Mul_output_0: 3dadc87c
/model.22/m.0/cv1/act/Sigmoid_output_0: 3bfa5ee3
/model.22/m.0/cv2/act/Sigmoid_output_0: 3c00c245
/model.23/cv3.1/cv3.1.1/cv3.1.1.1/conv/Conv_output_0: 3e7501dc
/model.22/m.0/cv1/act/Mul_output_0: 3cda612c
/model.22/m.0/cv2/act/Mul_output_0: 3d492126
/model.23/cv3.1/cv3.1.1/cv3.1.1.1/act/Sigmoid_output_0: 3c010204
/model.22/m.0/m/m.0/cv1/conv/Conv_output_0: 3d815a80
/model.23/cv3.1/cv3.1.1/cv3.1.1.1/act/Mul_output_0: 3e4feef0
/model.22/m.0/m/m.0/cv1/act/Sigmoid_output_0: 3c00c4ed
/model.23/cv3.1/cv3.1.2/Conv_output_0: 3e4c4f4d
/model.22/m.0/m/m.0/cv1/act/Mul_output_0: 3d4a84f6
/model.23/Concat_2_output_0: 3e4c4f4d
/model.22/m.0/m/m.0/cv2/conv/Conv_output_0: 3d940aef
/model.23/Reshape_4_output_0: 3e4c4f4d
/model.22/m.0/m/m.0/cv2/act/Sigmoid_output_0: 3c00f81e
/model.22/m.0/m/m.0/cv2/act/Mul_output_0: 3d82cf3a
/model.22/m.0/m/m.0/Add_output_0: 3d7f8d12
/model.22/m.0/m/m.1/cv1/conv/Conv_output_0: 3da8978d
/model.22/m.0/m/m.1/cv1/act/Sigmoid_output_0: 3c00f379
/model.22/m.0/m/m.1/cv1/act/Mul_output_0: 3d791d52
/model.22/m.0/m/m.1/cv2/conv/Conv_output_0: 3d9f2d5f
/model.22/m.0/m/m.1/cv2/act/Sigmoid_output_0: 3c010052
/model.22/m.0/m/m.1/cv2/act/Mul_output_0: 3d9f2b47
/model.22/m.0/m/m.1/Add_output_0: 3dcc770e
/model.22/m.0/Concat_output_0: 3dcc770e
/model.22/m.0/cv3/conv/Conv_output_0: 3ddabeca
/model.22/m.0/cv3/act/Sigmoid_output_0: 3c0101f9
/model.22/m.0/cv3/act/Mul_output_0: 3ddabeb7
/model.22/Concat_output_0: 3ddabeb7
/model.22/cv2/conv/Conv_output_0: 3da0c6ee
/model.22/cv2/act/Sigmoid_output_0: 3c00fd1f
/model.22/cv2/act/Mul_output_0: 3d8e0f41
/model.23/cv4.2/cv4.2.0/conv/Conv_output_0: 3d85ec5a
/model.23/cv2.2/cv2.2.0/conv/Conv_output_0: 3dbdffd8
/model.23/cv3.2/cv3.2.0/cv3.2.0.0/conv/Conv_output_0: 3db24ba6
/model.23/cv4.2/cv4.2.0/act/Sigmoid_output_0: 3c00f9d2
/model.23/cv2.2/cv2.2.0/act/Sigmoid_output_0: 3c0101c4
/model.23/cv3.2/cv3.2.0/cv3.2.0.0/act/Sigmoid_output_0: 3c00fff8
/model.23/cv4.2/cv4.2.0/act/Mul_output_0: 3d85e3d8
/model.23/cv2.2/cv2.2.0/act/Mul_output_0: 3dbdff79
/model.23/cv3.2/cv3.2.0/cv3.2.0.0/act/Mul_output_0: 3d9c21ea
/model.23/cv4.2/cv4.2.1/conv/Conv_output_0: 3da8c9bc
/model.23/cv2.2/cv2.2.1/conv/Conv_output_0: 3e942471
/model.23/cv3.2/cv3.2.0/cv3.2.0.1/conv/Conv_output_0: 3dd1abda
/model.23/cv4.2/cv4.2.1/act/Sigmoid_output_0: 3c010113
/model.23/cv2.2/cv2.2.1/act/Sigmoid_output_0: 3c010204
/model.23/cv3.2/cv3.2.0/cv3.2.0.1/act/Sigmoid_output_0: 3c00ffdd
/model.23/cv4.2/cv4.2.1/act/Mul_output_0: 3da8c881
/model.23/cv2.2/cv2.2.1/act/Mul_output_0: 3e942471
/model.23/cv3.2/cv3.2.0/cv3.2.0.1/act/Mul_output_0: 3d9b5592
/model.23/cv4.2/cv4.2.2/Conv_output_0: 3db4fe5e
/model.23/cv2.2/cv2.2.2/Conv_output_0: 3dbeca75
/model.23/cv3.2/cv3.2.1/cv3.2.1.0/conv/Conv_output_0: 3df198e3
/model.23/Reshape_2_output_0: 3db4fe5e
/model.23/cv3.2/cv3.2.1/cv3.2.1.0/act/Sigmoid_output_0: 3c010201
/model.23/Concat_output_0: 3db4fe5e
/model.23/cv3.2/cv3.2.1/cv3.2.1.0/act/Mul_output_0: 3df198dd
/model.23/cv3.2/cv3.2.1/cv3.2.1.1/conv/Conv_output_0: 3e1647bb
/model.23/Reshape_6_output_0: 3db4fe5e
/model.23/cv3.2/cv3.2.1/cv3.2.1.1/act/Sigmoid_output_0: 3c010204
/model.23/Sub_output_0: 3f1f847a
/model.23/Constant_13_output_0_output: 3f204081
ONNXTRT_Broadcast_186_output: 3e810204
/model.23/Concat_6_output_0: 40a8e42b
/model.23/Split_output_0: 3dc0fe76
/model.23/Constant_22_output_0_output: 3c810204
/model.23/Slice_1_output_0: 3dceefa9
/model.23/Div_1_output_0: 3f221a9d
/model.23/Add_1_output_0: 3f2cad16
/model.23/dfl/Reshape_output_0: 3dc0fe76
/model.23/dfl/conv/Conv_output_0: 3de13f24
/model.23/Constant_14_output_0_output: 3f204081
/model.23/cv3.2/cv3.2.1/cv3.2.1.1/act/Mul_output_0: 3e1647bb
/model.23/Concat_4_output_0: 3e4c4f4d
output0: 40a8e42b
ONNXTRT_Broadcast_104_output: 3c810204
/model.23/Add_2_output_0: 3fa21a9d
/model.23/Concat_5_output_0: 3f221a9d
/model.23/Sub_1_output_0: 3e564bb3
/model.23/Constant_24_output_0_output: 3e810204
/model.23/dfl/Reshape_1_output_0: 3de13f24
/model.23/Mul_3_output_0: 3dce46b9
/model.23/Sigmoid_1_output_0: 3c00d816
ONNXTRT_Broadcast_108_output: 3e810204
/model.23/Mul_2_output_0: 40a21a9d
/model.23/cv3.2/cv3.2.2/Conv_output_0: 3e1c4125
/model.23/Slice_2_output_0: 3d4e46b9
ONNXTRT_Broadcast_106_output: 3f1f3e7d
/model.23/dfl/Softmax_output: 3bfbcd76
/model.23/Reshape_7_output_0: 40a8e42b
/model.23/Slice_3_output_0: 3db4fe5e
/model.23/Concat_3_output_0: 3e1c4125
/model.23/dfl/Transpose_output_0: 3dc0fe76
ONNXTRT_Broadcast_184_output: 3c810204
/model.23/Add_3_output_0: 3f23f141
/model.23/Slice_output_0: 3de13f24
/model.23/Mul_4_output_0: 40a8e42b
/model.23/Constant_23_output_0_output: 3f1f3e7d
/model.23/dfl/Softmax_output_0: 3bfbcd76
/model.23/Reshape_5_output_0: 3e1c4125
/model.23/Split_output_1: 3e4c4f4d
/model.23/Sigmoid_output_0: 3bf15ef2
