TRT-101200-MinMaxCalibration
images: 3c010204
/model.0/conv/Conv_output_0: 3f4acdf1
/model.0/act/Sigmoid_output_0: 3c010204
/model.0/act/Mul_output_0: 3f3b5d12
/model.1/conv/Conv_output_0: 3f6b0623
/model.1/act/Sigmoid_output_0: 3c010204
/model.1/act/Mul_output_0: 3f38b2a3
/model.2/cv1/conv/Conv_output_0: 3f2e3725
/model.2/cv1/act/Sigmoid_output_0: 3c010204
/model.2/cv1/act/Mul_output_0: 3e314de5
/model.23/cv2.1/cv2.1.1/act/Sigmoid_output_0: 3c010204
/model.23/Concat_10_output_0: 3f204081
/model.22/cv1/conv/Conv_output_0: 3d6eb779
/model.23/Concat_22_output_0: 3f204081
/model.23/Reshape_7_output_0: 3f204081
/model.23/dfl/Reshape_1_output_0: 3de41b77
/model.2/Split_output_0: 3e314de5
/model.23/Reshape_17_output_0: 3e1d3a75
/model.23/Concat_20_output_0: 3e1d3a75
/model.22/m.0/cv2/act/Sigmoid_output_0: 3c007379
/model.2/Split_output_1: 3dab0fee
/model.2/m.0/cv1/conv/Conv_output_0: 3da74b42
/model.2/m.0/cv1/act/Sigmoid_output_0: 3c0100fb
/model.2/m.0/cv1/act/Mul_output_0: 3da749ea
/model.2/m.0/cv2/conv/Conv_output_0: 3e288034
/model.2/m.0/cv2/act/Sigmoid_output_0: 3c0101fc
/model.2/m.0/cv2/act/Mul_output_0: 3de0067d
/model.2/m.0/Add_output_0: 3e0ab2f6
/model.2/Concat_output_0: 3e314de5
/model.2/cv2/conv/Conv_output_0: 3e594811
/model.2/cv2/act/Sigmoid_output_0: 3c0101f3
/model.2/cv2/act/Mul_output_0: 3dd3e696
/model.3/conv/Conv_output_0: 3dc1f3fc
/model.3/act/Sigmoid_output_0: 3c00bd35
/model.3/act/Mul_output_0: 3d46a172
/model.4/cv1/conv/Conv_output_0: 3da4f119
/model.4/cv1/act/Sigmoid_output_0: 3c00c015
/model.4/cv1/act/Mul_output_0: 3d48064d
/model.23/dfl/Softmax_output: 3bf7a814
/model.23/Div_1_output_0: 3f2086ed
/model.23/cv3.1/cv3.1.1/cv3.1.1.1/conv/Conv_output_0: 3ef36aa8
/model.23/Unsqueeze_10_output_0: 3e1d3a75
/model.22/m.0/cv2/act/Mul_output_0: 3d2eb9b4
/model.23/dfl/Transpose_output_0: 3df448dc
/model.4/Split_output_0: 3d48064d
/model.23/cv2.1/cv2.1.2/Conv_output_0: 3de1b7bf
/model.23/Reshape_10_output_0: 3e9f3e7d
(Unnamed Layer* 510) [Constant]_output: 0
/model.4/Split_output_1: 3d03944c
/model.4/m.0/cv1/conv/Conv_output_0: 3d20b8fa
/model.4/m.0/cv1/act/Sigmoid_output_0: 3bfac3b9
/model.4/m.0/cv1/act/Mul_output_0: 3cde23dd
/model.4/m.0/cv2/conv/Conv_output_0: 3d888a15
/model.4/m.0/cv2/act/Sigmoid_output_0: 3c00e011
/model.4/m.0/cv2/act/Mul_output_0: 3d5da30e
/model.4/m.0/Add_output_0: 3d599cf4
/model.4/Concat_output_0: 3d599cf4
/model.4/cv2/conv/Conv_output_0: 3d8a15dd
/model.4/cv2/act/Sigmoid_output_0: 3c00cb04
/model.4/cv2/act/Mul_output_0: 3d4df0dd
/model.5/conv/Conv_output_0: 3d89424b
/model.5/act/Sigmoid_output_0: 3c005c52
/model.5/act/Mul_output_0: 3d29c11c
/model.6/cv1/conv/Conv_output_0: 3ddaf171
/model.6/cv1/act/Sigmoid_output_0: 3c00eaad
/model.6/cv1/act/Mul_output_0: 3d69cb46
/model.23/Expand_2_output_0: 3e9f3e7d
/model.23/ConstantOfShape_1_output_0: 0
/model.23/dfl/conv/Conv_output_0: 3de41b77
/model.22/m.0/m/m.1/cv1/act/Sigmoid_output_0: 3c00db9b
/model.22/m.0/cv2/conv/Conv_output_0: 3d2f7b99
/model.22/Split_output_1: 3d44aeef
/model.6/Split_output_0: 3d2ffbfa
/model.23/cv3.1/cv3.1.1/cv3.1.1.0/act/Mul_output_0: 3deb7580
/model.22/m.0/m/m.1/cv2/act/Mul_output_0: 3dd474e3
/model.23/cv3.1/cv3.1.1/cv3.1.1.0/act/Sigmoid_output_0: 3c010200
/model.6/Split_output_1: 3d69cb46
/model.6/m.0/cv1/conv/Conv_output_0: 3cfe4b2d
/model.6/m.0/cv2/conv/Conv_output_0: 3d676b1a
/model.6/m.0/cv1/act/Sigmoid_output_0: 3bfbd5af
/model.6/m.0/cv2/act/Sigmoid_output_0: 3c00e8c4
/model.6/m.0/cv1/act/Mul_output_0: 3ce966d7
/model.6/m.0/cv2/act/Mul_output_0: 3d673dce
/model.6/m.0/m/m.0/cv1/conv/Conv_output_0: 3d99da73
/model.6/m.0/m/m.0/cv1/act/Sigmoid_output_0: 3c00b3be
/model.6/m.0/m/m.0/cv1/act/Mul_output_0: 3d426c2b
/model.6/m.0/m/m.0/cv2/conv/Conv_output_0: 3d2bcb8e
/model.6/m.0/m/m.0/cv2/act/Sigmoid_output_0: 3c0005da
/model.6/m.0/m/m.0/cv2/act/Mul_output_0: 3d1bc81a
/model.6/m.0/m/m.0/Add_output_0: 3d1c411c
/model.6/m.0/m/m.1/cv1/conv/Conv_output_0: 3d39f94c
/model.6/m.0/m/m.1/cv1/act/Sigmoid_output_0: 3c0068c4
/model.6/m.0/m/m.1/cv1/act/Mul_output_0: 3d2c560d
/model.6/m.0/m/m.1/cv2/conv/Conv_output_0: 3d89b7b7
/model.6/m.0/m/m.1/cv2/act/Sigmoid_output_0: 3c00f055
/model.6/m.0/m/m.1/cv2/act/Mul_output_0: 3d72ca78
/model.6/m.0/m/m.1/Add_output_0: 3d8852b7
/model.6/m.0/Concat_output_0: 3d8852b7
/model.6/m.0/cv3/conv/Conv_output_0: 3d7ef3f9
/model.6/m.0/cv3/act/Sigmoid_output_0: 3c00eec4
/model.6/m.0/cv3/act/Mul_output_0: 3d7008bb
/model.6/Concat_output_0: 3d7008bb
/model.6/cv2/conv/Conv_output_0: 3d614c20
/model.6/cv2/act/Sigmoid_output_0: 3c00a3b7
/model.6/cv2/act/Mul_output_0: 3d3c51d4
/model.7/conv/Conv_output_0: 3d7d2b3e
/model.7/act/Sigmoid_output_0: 3c00f525
/model.7/act/Mul_output_0: 3d7d11fc
/model.8/cv1/conv/Conv_output_0: 3d926c17
/model.8/cv1/act/Sigmoid_output_0: 3c00f028
/model.8/cv1/act/Mul_output_0: 3d727802
/model.22/Split_output_0: 3d6e9233
ONNXTRT_Broadcast_250_output: 3e010204
/model.22/m.0/cv1/conv/Conv_output_0: 3d126b51
/model.23/Reshape_9_output_0: 3e9f3e7d
/model.23/Add_10_output_0: 3f25816e
/model.23/Unsqueeze_4_output_0: 3f204081
/model.8/Split_output_0: 3d727802
/model.23/cv3.1/cv3.1.1/cv3.1.1.1/act/Sigmoid_output_0: 3c010204
ONNXTRT_Broadcast_331_output: 3e810204
/model.23/Squeeze_2_output_0_output: 3e810204
/model.8/Split_output_1: 3d38f92d
/model.8/m.0/cv1/conv/Conv_output_0: 3d48fd5a
/model.8/m.0/cv2/conv/Conv_output_0: 3d5da8a7
/model.8/m.0/cv1/act/Sigmoid_output_0: 3c00afce
/model.8/m.0/cv2/act/Sigmoid_output_0: 3c00dfd9
/model.8/m.0/cv1/act/Mul_output_0: 3d40d0a7
/model.8/m.0/cv2/act/Mul_output_0: 3d5d6df2
/model.8/m.0/m/m.0/cv1/conv/Conv_output_0: 3d49f03c
/model.8/m.0/m/m.0/cv1/act/Sigmoid_output_0: 3c008471
/model.8/m.0/m/m.0/cv1/act/Mul_output_0: 3d32e8d5
/model.8/m.0/m/m.0/cv2/conv/Conv_output_0: 3d7c0fde
/model.8/m.0/m/m.0/cv2/act/Sigmoid_output_0: 3c00b754
/model.8/m.0/m/m.0/cv2/act/Mul_output_0: 3d43f441
/model.8/m.0/m/m.0/Add_output_0: 3d45d6a5
/model.8/m.0/m/m.1/cv1/conv/Conv_output_0: 3d75fa3a
/model.8/m.0/m/m.1/cv1/act/Sigmoid_output_0: 3c00cc2e
/model.8/m.0/m/m.1/cv1/act/Mul_output_0: 3d4ea2f1
/model.8/m.0/m/m.1/cv2/conv/Conv_output_0: 3dd26ab3
/model.8/m.0/m/m.1/cv2/act/Sigmoid_output_0: 3c0101f2
/model.8/m.0/m/m.1/cv2/act/Mul_output_0: 3dd26a96
/model.8/m.0/m/m.1/Add_output_0: 3def0acc
/model.8/m.0/Concat_output_0: 3def0acc
/model.8/m.0/cv3/conv/Conv_output_0: 3d9c7db3
/model.8/m.0/cv3/act/Sigmoid_output_0: 3c010004
/model.8/m.0/cv3/act/Mul_output_0: 3d9c7b47
/model.8/Concat_output_0: 3d9c7b47
/model.8/cv2/conv/Conv_output_0: 3d7fe1bd
/model.8/cv2/act/Sigmoid_output_0: 3c00e7b6
/model.8/cv2/act/Mul_output_0: 3d65eb11
/model.9/cv1/conv/Conv_output_0: 3d596fb5
/model.9/cv1/act/Sigmoid_output_0: 3c00db12
/model.9/cv1/act/Mul_output_0: 3d592e12
/model.9/m/MaxPool_output_0: 3d592e12
/model.9/m_1/MaxPool_output_0: 3d592e12
/model.9/m_2/MaxPool_output_0: 3d592e12
/model.9/Concat_output_0: 3d592e12
/model.9/cv2/conv/Conv_output_0: 3da67630
/model.9/cv2/act/Sigmoid_output_0: 3c00bc62
/model.9/cv2/act/Mul_output_0: 3d463db5
/model.10/cv1/conv/Conv_output_0: 3dc300c1
/model.10/cv1/act/Sigmoid_output_0: 3c0101d5
/model.10/cv1/act/Mul_output_0: 3dc30079
/model.22/m.0/cv3/conv/Conv_output_0: 3de4f886
/model.23/cv3.2/cv3.2.1/cv3.2.1.0/conv/Conv_output_0: 3e3ba251
/model.23/Reshape_15_output_0: 3e1d3a75
/model.23/cv3.1/cv3.1.1/cv3.1.1.1/act/Mul_output_0: 3ef36aa8
/model.23/Transpose_output_0: 3f204081
/model.23/Add_8_output_0: 3e810204
/model.10/Split_output_0: 3d8e2f68
/model.22/m.0/cv1/act/Mul_output_0: 3c95eb41
(Unnamed Layer* 636) [Constant]_output: 0
/model.22/m.0/cv1/act/Sigmoid_output_0: 3beeab6b
/model.10/Split_output_1: 3dc30079
/model.23/Reshape_14_output_0: 3e1d3a75
ONNXTRT_Broadcast_321_output: 3b810204
/model.10/m/m.0/attn/qkv/conv/Conv_output_0: 3d7ca39e
ONNXTRT_Broadcast_323_output: 3b810204
/model.23/Concat_23_output_0: 3e810204
/model.23/cv3.1/cv3.1.2/Conv_output_0: 3e969e46
/model.22/m.0/m/m.0/cv1/act/Mul_output_0: 3d33e349
/model.23/Transpose_1_output_0: 3e810204
ONNXTRT_ShapeShuffle_319_output: 3c010204
/model.23/Range_5_output_0: 3e193265
ONNXTRT_Broadcast_437_output: 3c810204
/model.23/Sigmoid_output_0: 3bf0da32
/model.23/cv3.1/cv3.1.1/cv3.1.1.0/conv/Conv_output_0: 3deb7587
/model.23/Squeeze_1_output_0_output: 3e010204
/model.23/Expand_5_output_0: 3e1d3a75
/model.23/Add_11_output_0: 3fa086ed
/model.22/m.0/m/m.1/cv1/act/Mul_output_0: 3d59a090
/model.23/cv2.1/cv2.1.1/act/Mul_output_0: 3e8fd3f5
/model.23/Reshape_13_output_0: 3e1d3a75
/model.23/Sub_1_output_0: 3e36e167
/model.10/m/m.0/attn/Reshape_output_0: 3d7ca39e
ONNXTRT_Broadcast_240_output: 3b810204
/model.23/Add_5_output_0: 3e010204
/model.22/m.0/m/m.1/cv1/conv/Conv_output_0: 3d7d9779
ONNXTRT_ShapeShuffle_309_output: 3c010204
/model.22/m.0/m/m.0/cv2/act/Mul_output_0: 3d56ef6b
/model.23/Range_4_output_0: 3e193265
/model.10/m/m.0/attn/Split_output_0: 3d420a8d
/model.23/Concat_1_output_0: 3e969e46
/model.23/Expand_output_0: 3f204081
/model.22/m.0/m/m.0/cv2/act/Sigmoid_output_0: 3c00d84b
/model.10/m/m.0/attn/Split_output_1: 3d566bc5
/model.22/m.0/m/m.0/cv2/conv/Conv_output_0: 3d5fb916
/model.23/Reshape_1_output_0: 3e969e46
/model.23/Split_1_output_1: 3e969e46
/model.10/m/m.0/attn/Split_output_2: 3d7ca39e
/model.10/m/m.0/attn/Transpose_output_0: 3d420a8d
/model.10/m/m.0/attn/Reshape_2_output_0: 3d7ca39e
/model.10/m/m.0/attn/MatMul_output_0: 3f2c69e3
/model.10/m/m.0/attn/pe/conv/Conv_output_0: 3d35b862
/model.10/m/m.0/attn/Constant_6_output_0_output: 3ab671d7
ONNXTRT_Broadcast_output: 3ab671d7
/model.10/m/m.0/attn/Mul_1_output_0: 3df3d466
/model.10/m/m.0/attn/Softmax_output: 3bd4d912
/model.10/m/m.0/attn/Softmax_output_0: 3bd4d912
ONNXTRT_ShapeShuffle_228_output: 3c010204
ONNXTRT_ShapeShuffle_238_output: 3c010204
/model.10/m/m.0/attn/Transpose_1_output_0: 3bd4d912
/model.10/m/m.0/attn/MatMul_1_output_0: 3d238de6
/model.10/m/m.0/attn/Reshape_1_output_0: 3d238de6
/model.10/m/m.0/attn/Add_output_0: 3ced9ee3
/model.10/m/m.0/attn/proj/conv/Conv_output_0: 3d0e8102
/model.10/m/m.0/Add_output_0: 3d8e8d94
/model.10/m/m.0/ffn/ffn.0/conv/Conv_output_0: 3d63a479
/model.10/m/m.0/ffn/ffn.0/act/Sigmoid_output_0: 3c00e5a0
/model.10/m/m.0/ffn/ffn.0/act/Mul_output_0: 3d637261
/model.10/m/m.0/ffn/ffn.1/conv/Conv_output_0: 3dacb5a8
/model.10/m/m.0/Add_1_output_0: 3d4cb779
/model.10/Concat_output_0: 3d8e2f68
/model.10/cv2/conv/Conv_output_0: 3d834fb9
/model.10/cv2/act/Sigmoid_output_0: 3c00f783
/model.10/cv2/act/Mul_output_0: 3d81d099
/model.11/Resize_output_0: 3d81d099
/model.12/Concat_output_0: 3d81d099
/model.13/cv1/conv/Conv_output_0: 3d581f70
/model.13/cv1/act/Sigmoid_output_0: 3c00c83d
/model.13/cv1/act/Mul_output_0: 3d4c5690
/model.23/Range_2_output_0: 3e9d3a75
/model.22/m.0/m/m.1/cv2/conv/Conv_output_0: 3dd474fd
/model.23/cv3.1/cv3.1.0/cv3.1.0.1/conv/Conv_output_0: 3d957485
/model.23/dfl/Softmax_output_0: 3bf7a814
/model.23/Slice_1_output_0: 3ddfc852
/model.23/Unsqueeze_12_output_0: 3f204081
/model.13/Split_output_0: 3d4c5690
ONNXTRT_ShapeShuffle_245_output: 0
/model.23/Sub_output_0: 3f1fd703
/model.23/Range_3_output_0: 3e9d3a75
/model.13/Split_output_1: 3ceaf8e6
/model.13/m.0/cv1/conv/Conv_output_0: 3d5bef85
/model.13/m.0/cv1/act/Sigmoid_output_0: 3c00ccaa
/model.13/m.0/cv1/act/Mul_output_0: 3d4eee82
/model.13/m.0/cv2/conv/Conv_output_0: 3da6d650
/model.13/m.0/cv2/act/Sigmoid_output_0: 3c00e760
/model.13/m.0/cv2/act/Mul_output_0: 3d658166
/model.13/m.0/Add_output_0: 3d658650
/model.13/Concat_output_0: 3d658650
/model.13/cv2/conv/Conv_output_0: 3d659e0d
/model.13/cv2/act/Sigmoid_output_0: 3bff9205
/model.13/cv2/act/Mul_output_0: 3d1486d5
/model.14/Resize_output_0: 3d1486d5
/model.15/Concat_output_0: 3d4df0dd
/model.16/cv1/conv/Conv_output_0: 3d3c07de
/model.16/cv1/act/Sigmoid_output_0: 3bfc9e4e
/model.16/cv1/act/Mul_output_0: 3cf2e4a9
/model.22/m.0/m/m.0/Add_output_0: 3d587142
ONNXTRT_ShapeShuffle_326_output: 0
/model.23/Concat_6_output_0: 3e969e46
/model.23/Reshape_11_output_0: 3e9f3e7d
/model.23/Slice_output_0: 3de41b77
/model.23/Reshape_2_output_0: 3e90a926
/model.16/Split_output_0: 3cf2e4a9
/model.23/Constant_67_output_0_output: 3c810204
/model.23/Concat_2_output_0: 3e90a926
/model.23/cv3.2/cv3.2.2/Conv_output_0: 3e90a926
/model.16/Split_output_1: 3c7ba8da
/model.16/m.0/cv1/conv/Conv_output_0: 3d1bc669
/model.16/m.0/cv1/act/Sigmoid_output_0: 3bfb936c
/model.16/m.0/cv1/act/Mul_output_0: 3ce68470
/model.16/m.0/cv2/conv/Conv_output_0: 3d846fe1
/model.16/m.0/cv2/act/Sigmoid_output_0: 3c008b60
/model.16/m.0/cv2/act/Mul_output_0: 3d34c6dc
/model.16/m.0/Add_output_0: 3d335ae5
/model.16/Concat_output_0: 3d335ae5
/model.16/cv2/conv/Conv_output_0: 3d8ecdd3
/model.16/cv2/act/Sigmoid_output_0: 3bfe801a
/model.16/cv2/act/Mul_output_0: 3d083a60
/model.17/conv/Conv_output_0: 3d473fd2
/model.23/cv2.0/cv2.0.0/conv/Conv_output_0: 3dd71c0f
/model.23/cv3.0/cv3.0.0/cv3.0.0.0/conv/Conv_output_0: 3d74f720
/model.17/act/Sigmoid_output_0: 3bff44fe
/model.23/cv2.0/cv2.0.0/act/Sigmoid_output_0: 3c00b9bd
/model.23/cv3.0/cv3.0.0/cv3.0.0.0/act/Sigmoid_output_0: 3c00f16b
/model.17/act/Mul_output_0: 3d109d36
/model.23/cv2.0/cv2.0.0/act/Mul_output_0: 3d4506a1
/model.23/cv3.0/cv3.0.0/cv3.0.0.0/act/Mul_output_0: 3d74d79b
/model.18/Concat_output_0: 3d1486d5
/model.23/cv2.0/cv2.0.1/conv/Conv_output_0: 3ebc36c1
/model.23/cv3.0/cv3.0.0/cv3.0.0.1/conv/Conv_output_0: 3db3cf59
/model.19/cv1/conv/Conv_output_0: 3d76aea3
/model.23/cv2.0/cv2.0.1/act/Sigmoid_output_0: 3c010204
/model.23/cv3.0/cv3.0.0/cv3.0.0.1/act/Sigmoid_output_0: 3c007a1a
/model.19/cv1/act/Sigmoid_output_0: 3c00e284
/model.23/cv2.0/cv2.0.1/act/Mul_output_0: 3ebc36c1
/model.23/cv3.0/cv3.0.0/cv3.0.0.1/act/Mul_output_0: 3d304ce2
/model.19/cv1/act/Mul_output_0: 3d601189
/model.23/cv2.0/cv2.0.2/Conv_output_0: 3df448dc
/model.23/cv3.0/cv3.0.1/cv3.0.1.0/conv/Conv_output_0: 3da6351e
/model.23/Unsqueeze_9_output_0: 3e1d3a75
/model.23/Reshape_8_output_0: 3e9f3e7d
/model.23/cv3.2/cv3.2.1/cv3.2.1.1/act/Mul_output_0: 3e74a79d
/model.23/cv3.2/cv3.2.1/cv3.2.1.1/act/Sigmoid_output_0: 3c010204
/model.23/Mul_5_output_0: 40a34481
/model.23/cv3.2/cv3.2.1/cv3.2.1.1/conv/Conv_output_0: 3e74a79d
/model.19/Split_output_0: 3d601189
/model.23/cv3.2/cv3.2.1/cv3.2.1.0/act/Mul_output_0: 3e3ba251
/model.21/Concat_output_0: 3d81d099
output0: 40a34481
/model.19/Split_output_1: 3d092048
/model.23/cv3.0/cv3.0.1/cv3.0.1.0/act/Sigmoid_output_0: 3c00f2c2
/model.19/m.0/cv1/conv/Conv_output_0: 3d4c1a82
/model.23/cv3.0/cv3.0.1/cv3.0.1.0/act/Mul_output_0: 3d778f9c
/model.19/m.0/cv1/act/Sigmoid_output_0: 3c00106e
/model.23/cv3.0/cv3.0.1/cv3.0.1.1/conv/Conv_output_0: 3e8c9fda
/model.19/m.0/cv1/act/Mul_output_0: 3d1d364d
/model.23/cv3.0/cv3.0.1/cv3.0.1.1/act/Sigmoid_output_0: 3c010204
/model.19/m.0/cv2/conv/Conv_output_0: 3dc79e43
/model.23/cv3.0/cv3.0.1/cv3.0.1.1/act/Mul_output_0: 3e408ad0
/model.19/m.0/cv2/act/Sigmoid_output_0: 3c00ff83
/model.23/cv3.0/cv3.0.2/Conv_output_0: 3e3335b8
/model.19/m.0/cv2/act/Mul_output_0: 3d98f911
/model.23/Concat_output_0: 3e3335b8
/model.19/m.0/Add_output_0: 3d95e0f6
/model.23/cv2.2/cv2.2.1/act/Mul_output_0: 3ec614a0
ONNXTRT_Broadcast_444_output: 3e810204
/model.19/Concat_output_0: 3d95e0f6
/model.23/Unsqueeze_3_output_0: 3f204081
/model.23/cv2.2/cv2.2.1/conv/Conv_output_0: 3ec614a0
/model.23/cv3.2/cv3.2.0/cv3.2.0.1/act/Mul_output_0: 3d992c26
/model.19/cv2/conv/Conv_output_0: 3dc2d759
/model.23/cv3.2/cv3.2.0/cv3.2.0.1/act/Sigmoid_output_0: 3c00ff8c
/model.22/Concat_output_0: 3d97d531
/model.23/cv3.1/cv3.1.0/cv3.1.0.1/act/Sigmoid_output_0: 3c00fd88
/model.23/dfl/Reshape_output_0: 3df448dc
/model.19/cv2/act/Sigmoid_output_0: 3c00b565
/model.23/cv3.2/cv3.2.1/cv3.2.1.0/act/Sigmoid_output_0: 3c010204
/model.23/cv2.2/cv2.2.2/Conv_output_0: 3dc5d96c
/model.23/cv2.2/cv2.2.1/act/Sigmoid_output_0: 3c010204
/model.23/Constant_14_output_0_output: 0
/model.23/Constant_15_output_0_output: 3c010204
/model.23/Expand_1_output_0: 3f204081
/model.23/ConstantOfShape_2_output_0: 0
/model.22/m.0/cv3/act/Mul_output_0: 3d97d531
/model.22/cv2/conv/Conv_output_0: 3deef9d9
/model.23/cv2.1/cv2.1.1/conv/Conv_output_0: 3e8fd3f5
/model.23/Split_1_output_0: 3df448dc
/model.22/m.0/cv3/act/Sigmoid_output_0: 3c00ff53
/model.23/Range_output_0: 3f1f3e7d
ONNXTRT_ShapeShuffle_146_output: 3c010204
/model.22/cv2/act/Sigmoid_output_0: 3c010201
/model.23/cv2.2/cv2.2.0/act/Sigmoid_output_0: 3c00ff4b
/model.23/cv3.2/cv3.2.0/cv3.2.0.0/conv/Conv_output_0: 3e0e5cc2
/model.23/cv3.2/cv3.2.0/cv3.2.0.0/act/Sigmoid_output_0: 3c0101f8
/model.23/cv2.2/cv2.2.0/conv/Conv_output_0: 3dba852e
/model.22/cv2/act/Mul_output_0: 3deef9d3
/model.23/cv3.1/cv3.1.0/cv3.1.0.1/act/Mul_output_0: 3d8f87ea
/model.23/Range_1_output_0: 3f1f3e7d
ONNXTRT_ShapeShuffle_156_output: 3c010204
/model.23/cv3.2/cv3.2.0/cv3.2.0.0/act/Mul_output_0: 3dd8acf5
/model.19/cv2/act/Mul_output_0: 3d431eb4
/model.23/Reshape_output_0: 3e3335b8
/model.23/Constant_16_output_0_output: 3b810204
ONNXTRT_Broadcast_159_output: 3b810204
/model.23/Reshape_4_output_0: 3f204081
ONNXTRT_Broadcast_161_output: 3b810204
/model.23/Reshape_3_output_0: 3f204081
/model.23/cv3.2/cv3.2.0/cv3.2.0.1/conv/Conv_output_0: 3e2f8f98
/model.23/cv2.2/cv2.2.0/act/Mul_output_0: 3d97a4ab
/model.20/conv/Conv_output_0: 3d82f6f2
/model.23/cv2.1/cv2.1.0/conv/Conv_output_0: 3de8d877
/model.23/cv3.1/cv3.1.0/cv3.1.0.0/conv/Conv_output_0: 3db2e0d8
(Unnamed Layer* 383) [Constant]_output: 0
ONNXTRT_ShapeShuffle_164_output: 0
/model.23/ConstantOfShape_output_0: 0
/model.22/m.0/m/m.0/cv1/act/Sigmoid_output_0: 3c00881f
/model.22/m.0/Concat_output_0: 3dd2aef4
/model.23/Unsqueeze_6_output_0: 3e9f3e7d
/model.22/m.0/m/m.0/cv1/conv/Conv_output_0: 3d4fa7ad
/model.23/Reshape_5_output_0: 3f204081
/model.23/Reshape_6_output_0: 3f204081
/model.20/act/Sigmoid_output_0: 3c004842
/model.23/cv2.1/cv2.1.0/act/Sigmoid_output_0: 3c00fec2
/model.23/cv3.1/cv3.1.0/cv3.1.0.0/act/Sigmoid_output_0: 3c010183
/model.23/Squeeze_output_0_output: 3d810204
ONNXTRT_Broadcast_169_output: 3d810204
/model.23/Add_2_output_0: 3d810204
/model.22/m.0/m/m.1/cv2/act/Sigmoid_output_0: 3c0101f4
/model.20/act/Mul_output_0: 3d25f631
/model.23/cv2.1/cv2.1.0/act/Mul_output_0: 3d94ca21
/model.23/cv3.1/cv3.1.0/cv3.1.0.0/act/Mul_output_0: 3db2e025
/model.23/Concat_24_output_0: 3f2086ed
/model.23/Expand_3_output_0: 3e9f3e7d
/model.23/Concat_15_output_0: 3e9f3e7d
/model.23/Reshape_16_output_0: 3e1d3a75
/model.23/Expand_4_output_0: 3e1d3a75
/model.22/cv1/act/Mul_output_0: 3d6e9233
/model.23/Reshape_12_output_0: 3e9f3e7d
/model.22/cv1/act/Sigmoid_output_0: 3c00ede0
ONNXTRT_Broadcast_242_output: 3b810204
/model.22/m.0/m/m.1/Add_output_0: 3dd2aef4
/model.23/Unsqueeze_7_output_0: 3e9f3e7d
