TRT-101200-MinMaxCalibration
images: 3c010204
/model.0/conv/Conv_output_0: 3ee7ffc4
/model.0/act/Sigmoid_output_0: 3c010204
/model.0/act/Mul_output_0: 3e2a9c26
/model.1/conv/Conv_output_0: 3f13526d
/model.1/act/Sigmoid_output_0: 3c010204
/model.1/act/Mul_output_0: 3f13526d
/model.2/cv1/conv/Conv_output_0: 3ee0f2c8
/model.2/cv1/act/Sigmoid_output_0: 3c010204
/model.2/cv1/act/Mul_output_0: 3e129643
/model.2/Split_output_0: 3e129643
/model.2/Split_output_1: 3dacd5c5
/model.2/m.0/cv1/conv/Conv_output_0: 3e2ce802
/model.2/m.0/cv1/act/Sigmoid_output_0: 3c0101f7
/model.2/m.0/cv1/act/Mul_output_0: 3dd814f3
/model.2/m.0/cv2/conv/Conv_output_0: 3e60c324
/model.2/m.0/cv2/act/Sigmoid_output_0: 3c010204
/model.2/m.0/cv2/act/Mul_output_0: 3e1aa384
/model.2/m.0/Add_output_0: 3e26bde3
/model.2/Concat_output_0: 3e26bde3
/model.2/cv2/conv/Conv_output_0: 3e4d0b4f
/model.2/cv2/act/Sigmoid_output_0: 3c010154
/model.2/cv2/act/Mul_output_0: 3dada1e1
/model.3/conv/Conv_output_0: 3e1df594
/model.3/act/Sigmoid_output_0: 3c0100b7
/model.3/act/Mul_output_0: 3da39d31
/model.4/cv1/conv/Conv_output_0: 3e029166
/model.4/cv1/act/Sigmoid_output_0: 3c010071
/model.4/cv1/act/Mul_output_0: 3da07c43
/model.4/Split_output_0: 3da07c43
/model.4/Split_output_1: 3d6414fb
/model.4/m.0/cv1/conv/Conv_output_0: 3d4f6400
/model.4/m.0/cv1/act/Sigmoid_output_0: 3c00a6ab
/model.4/m.0/cv1/act/Mul_output_0: 3d3d5c62
/model.4/m.0/cv2/conv/Conv_output_0: 3e0570ba
/model.4/m.0/cv2/act/Sigmoid_output_0: 3c0101fe
/model.4/m.0/cv2/act/Mul_output_0: 3de44a8c
/model.4/m.0/Add_output_0: 3e076e97
/model.4/Concat_output_0: 3e076e97
/model.4/cv2/conv/Conv_output_0: 3def72e2
/model.4/cv2/act/Sigmoid_output_0: 3c00fc0e
/model.4/cv2/act/Mul_output_0: 3d8ae59c
/model.5/conv/Conv_output_0: 3dfba4dd
/model.5/act/Sigmoid_output_0: 3c0101d5
/model.5/act/Mul_output_0: 3dc32589
/model.6/cv1/conv/Conv_output_0: 3e1944e5
/model.6/cv1/act/Sigmoid_output_0: 3c010204
/model.6/cv1/act/Mul_output_0: 3e1944e5
/model.6/Split_output_0: 3d90a80b
/model.6/Split_output_1: 3e1944e5
/model.6/m.0/cv1/conv/Conv_output_0: 3df23670
/model.6/m.0/cv2/conv/Conv_output_0: 3de48bc1
/model.6/m.0/cv1/act/Sigmoid_output_0: 3c010201
/model.6/m.0/cv2/act/Sigmoid_output_0: 3c0101fe
/model.6/m.0/cv1/act/Mul_output_0: 3df2366a
/model.6/m.0/cv2/act/Mul_output_0: 3de48bb5
/model.6/m.0/m/m.0/cv1/conv/Conv_output_0: 3da943cb
/model.6/m.0/m/m.0/cv1/act/Sigmoid_output_0: 3c00da0a
/model.6/m.0/m/m.0/cv1/act/Mul_output_0: 3d585310
/model.6/m.0/m/m.0/cv2/conv/Conv_output_0: 3db74038
/model.6/m.0/m/m.0/cv2/act/Sigmoid_output_0: 3c00fe64
/model.6/m.0/m/m.0/cv2/act/Mul_output_0: 3d93091d
/model.6/m.0/m/m.0/Add_output_0: 3deed842
/model.6/m.0/m/m.1/cv1/conv/Conv_output_0: 3d9f2d5f
/model.6/m.0/m/m.1/cv1/act/Sigmoid_output_0: 3c00da2c
/model.6/m.0/m/m.1/cv1/act/Mul_output_0: 3d586fa8
/model.6/m.0/m/m.1/cv2/conv/Conv_output_0: 3df3a794
/model.6/m.0/m/m.1/cv2/act/Sigmoid_output_0: 3c010201
/model.6/m.0/m/m.1/cv2/act/Mul_output_0: 3df3a78e
/model.6/m.0/m/m.1/Add_output_0: 3df6ab52
/model.6/m.0/Concat_output_0: 3df6ab52
/model.6/m.0/cv3/conv/Conv_output_0: 3dfdfcfc
/model.6/m.0/cv3/act/Sigmoid_output_0: 3c010203
/model.6/m.0/cv3/act/Mul_output_0: 3dfb2dff
/model.6/Concat_output_0: 3e1944e5
/model.6/cv2/conv/Conv_output_0: 3dfdb9d0
/model.6/cv2/act/Sigmoid_output_0: 3c010175
/model.6/cv2/act/Mul_output_0: 3db11f4b
/model.7/conv/Conv_output_0: 3e13bf44
/model.7/act/Sigmoid_output_0: 3c010203
/model.7/act/Mul_output_0: 3dff4000
/model.8/cv1/conv/Conv_output_0: 3dd20e7f
/model.8/cv1/act/Sigmoid_output_0: 3c0101f1
/model.8/cv1/act/Mul_output_0: 3dd20e61
/model.8/Split_output_0: 3d7c6ea4
/model.8/Split_output_1: 3dd20e61
/model.8/m.0/cv1/conv/Conv_output_0: 3db34e27
/model.8/m.0/cv2/conv/Conv_output_0: 3db4bb18
/model.8/m.0/cv1/act/Sigmoid_output_0: 3c010186
/model.8/m.0/cv2/act/Sigmoid_output_0: 3c010190
/model.8/m.0/cv1/act/Mul_output_0: 3db34d78
/model.8/m.0/cv2/act/Mul_output_0: 3db4ba76
/model.8/m.0/m/m.0/cv1/conv/Conv_output_0: 3e295f82
/model.8/m.0/m/m.0/cv1/act/Sigmoid_output_0: 3c010204
/model.8/m.0/m/m.0/cv1/act/Mul_output_0: 3e295f82
/model.8/m.0/m/m.0/cv2/conv/Conv_output_0: 3df825ae
/model.8/m.0/m/m.0/cv2/act/Sigmoid_output_0: 3c0101a1
/model.8/m.0/m/m.0/cv2/act/Mul_output_0: 3db735ed
/model.8/m.0/m/m.0/Add_output_0: 3dbad769
/model.8/m.0/m/m.1/cv1/conv/Conv_output_0: 3ddf392b
/model.8/m.0/m/m.1/cv1/act/Sigmoid_output_0: 3c0101e4
/model.8/m.0/m/m.1/cv1/act/Mul_output_0: 3dc949de
/model.8/m.0/m/m.1/cv2/conv/Conv_output_0: 3e1862d6
/model.8/m.0/m/m.1/cv2/act/Sigmoid_output_0: 3c010203
/model.8/m.0/m/m.1/cv2/act/Mul_output_0: 3dfd2e25
/model.8/m.0/m/m.1/Add_output_0: 3df992bb
/model.8/m.0/Concat_output_0: 3df992bb
/model.8/m.0/cv3/conv/Conv_output_0: 3de9d701
/model.8/m.0/cv3/act/Sigmoid_output_0: 3c0101dc
/model.8/m.0/cv3/act/Mul_output_0: 3dc5add3
/model.8/Concat_output_0: 3dd20e61
/model.8/cv2/conv/Conv_output_0: 3da80677
/model.8/cv2/act/Sigmoid_output_0: 3c00fe21
/model.8/cv2/act/Mul_output_0: 3d91de23
/model.9/cv1/conv/Conv_output_0: 3e111c32
/model.9/cv1/act/Sigmoid_output_0: 3c010204
/model.9/cv1/act/Mul_output_0: 3e01deb3
/model.9/Split_output_0: 3dddc466
/model.9/Split_output_1: 3e01deb3
/model.9/m/m.0/attn/qkv/conv/Conv_output_0: 3dfc8c09
/model.9/m/m.0/attn/Reshape_output_0: 3dfc8c09
/model.9/m/m.0/attn/Split_output_0: 3d1da1d4
/model.9/m/m.0/attn/Split_output_1: 3d07f59c
/model.9/m/m.0/attn/Split_output_2: 3dfc8c09
/model.9/m/m.0/attn/Transpose_output_0: 3d1da1d4
/model.9/m/m.0/attn/Reshape_2_output_0: 3dfc8c09
/model.9/m/m.0/attn/MatMul_output_0: 3ec86544
/model.9/m/m.0/attn/pe/conv/Conv_output_0: 3de7b0a1
/model.9/m/m.0/attn/Constant_1_output_0_output: 3ab671d7
ONNXTRT_Broadcast_output: 3ab671d7
/model.9/m/m.0/attn/Mul_output_0: 3d8db379
/model.9/m/m.0/attn/Softmax_output: 3baf2f49
/model.9/m/m.0/attn/Softmax_output_0: 3baf2f49
/model.9/m/m.0/attn/Transpose_1_output_0: 3baf2f49
/model.9/m/m.0/attn/MatMul_1_output_0: 3dd9a847
/model.9/m/m.0/attn/Reshape_1_output_0: 3dd9a847
/model.9/m/m.0/attn/Add_output_0: 3d8f713d
/model.9/m/m.0/attn/proj/conv/Conv_output_0: 3d18acd4
/model.9/m/m.0/Add_output_0: 3e0af786
/model.9/m/m.0/ffn/ffn.0/conv/Conv_output_0: 3dbe35de
/model.9/m/m.0/ffn/ffn.0/act/Sigmoid_output_0: 3c00e25d
/model.9/m/m.0/ffn/ffn.0/act/Mul_output_0: 3d5fe93c
/model.9/m/m.0/ffn/ffn.1/conv/Conv_output_0: 3d7b87d0
/model.9/m/m.0/Add_1_output_0: 3e1915b2
/model.9/Concat_output_0: 3e1915b2
/model.9/cv2/conv/Conv_output_0: 3daa751e
/model.9/cv2/act/Sigmoid_output_0: 3c00d46a
/model.9/cv2/act/Mul_output_0: 3d540c51
/model.10/conv/conv/Conv_output_0: 3fc5b6da
/model.10/conv/act/Sigmoid_output_0: 3c010204
/model.10/conv/act/Mul_output_0: 3fc5b6da
/model.10/pool/GlobalAveragePool_output_0: 3dc8acbd
/model.10/Flatten_output_0: 3dc8acbd
model.10.linear.weight_output: 3bc264ca
/model.10/linear/Gemm_output: 3e14225b
model.10.linear.bias_output: 3c814285
ONNXTRT_Broadcast_25_output: 3c814285
/model.10/linear/Gemm_output_0: 3e0a4aab
/model.10/Softmax_output: 3be7c1f8
output0: 3be7c1f8
