TRT-101200-MinMaxCalibration
images: 3c010204
/model.0/conv/Conv_output_0: 3ed161ba
/model.0/act/Sigmoid_output_0: 3c010204
/model.0/act/Mul_output_0: 3ed161ba
/model.1/conv/Conv_output_0: 3f38204a
/model.1/act/Sigmoid_output_0: 3c010204
/model.1/act/Mul_output_0: 3f37219a
/model.2/cv1/conv/Conv_output_0: 3ebd002a
/model.2/cv2/conv/Conv_output_0: 3eaf5fce
/model.2/cv1/act/Sigmoid_output_0: 3c00ec0c
/model.2/cv2/act/Sigmoid_output_0: 3c010204
/model.2/cv1/act/Mul_output_0: 3d6bc3c9
/model.2/cv2/act/Mul_output_0: 3e2c2e5a
/model.2/m/m.0/cv1/conv/Conv_output_0: 3e144966
/model.2/m/m.0/cv1/act/Sigmoid_output_0: 3c00d7c2
/model.2/m/m.0/cv1/act/Mul_output_0: 3d568543
/model.2/m/m.0/cv2/conv/Conv_output_0: 3e490e3e
/model.2/m/m.0/cv2/act/Sigmoid_output_0: 3c010204
/model.2/m/m.0/cv2/act/Mul_output_0: 3e3c2f3e
/model.2/m/m.0/Add_output_0: 3e3c2f3e
/model.2/Concat_output_0: 3e3c2f3e
/model.2/cv3/conv/Conv_output_0: 3dfe9594
/model.2/cv3/act/Sigmoid_output_0: 3c01016b
/model.2/cv3/act/Mul_output_0: 3dafeaa9
/model.3/conv/Conv_output_0: 3dc27d63
/model.3/act/Sigmoid_output_0: 3c00c159
/model.3/act/Mul_output_0: 3d48a8c6
/model.4/cv1/conv/Conv_output_0: 3d52d3d6
/model.4/cv2/conv/Conv_output_0: 3da2b891
/model.4/cv1/act/Sigmoid_output_0: 3bef85c6
/model.4/cv2/act/Sigmoid_output_0: 3c00d3c4
/model.4/cv1/act/Mul_output_0: 3c995f2b
/model.4/cv2/act/Mul_output_0: 3d53961e
/model.4/m/m.0/cv1/conv/Conv_output_0: 3d51e61b
/model.4/m/m.0/cv1/act/Sigmoid_output_0: 3c00d0d7
/model.4/m/m.0/cv1/act/Mul_output_0: 3d519618
/model.4/m/m.0/cv2/conv/Conv_output_0: 3d5fe7e8
/model.4/m/m.0/cv2/act/Sigmoid_output_0: 3c001f2e
/model.4/m/m.0/cv2/act/Mul_output_0: 3d1f5110
/model.4/m/m.0/Add_output_0: 3d1791b9
/model.4/m/m.1/cv1/conv/Conv_output_0: 3d58c87b
/model.4/m/m.1/cv1/act/Sigmoid_output_0: 3c008a8d
/model.4/m/m.1/cv1/act/Mul_output_0: 3d348ca6
/model.4/m/m.1/cv2/conv/Conv_output_0: 3dbf2769
/model.4/m/m.1/cv2/act/Sigmoid_output_0: 3c00f183
/model.4/m/m.1/cv2/act/Mul_output_0: 3d7505b2
/model.4/m/m.1/Add_output_0: 3d81da85
/model.4/Concat_output_0: 3d81da85
/model.4/cv3/conv/Conv_output_0: 3dc57a7e
/model.4/cv3/act/Sigmoid_output_0: 3c00f2f1
/model.4/cv3/act/Mul_output_0: 3d77f362
/model.5/conv/Conv_output_0: 3d95e9ca
/model.5/act/Sigmoid_output_0: 3c00c871
/model.5/act/Mul_output_0: 3d4c73ab
/model.6/cv1/conv/Conv_output_0: 3d42de92
/model.6/cv2/conv/Conv_output_0: 3d98b905
/model.6/cv1/act/Sigmoid_output_0: 3bfc9e8b
/model.6/cv2/act/Sigmoid_output_0: 3c00ff78
/model.6/cv1/act/Mul_output_0: 3cf2e7b4
/model.6/cv2/act/Mul_output_0: 3d98b602
/model.6/m/m.0/cv1/conv/Conv_output_0: 3d951d7d
/model.6/m/m.0/cv1/act/Sigmoid_output_0: 3c00fed2
/model.6/m/m.0/cv1/act/Mul_output_0: 3d9519cb
/model.6/m/m.0/cv2/conv/Conv_output_0: 3d63e437
/model.6/m/m.0/cv2/act/Sigmoid_output_0: 3bfd736d
/model.6/m/m.0/cv2/act/Mul_output_0: 3cfe83d2
/model.6/m/m.0/Add_output_0: 3cf9df66
/model.6/m/m.1/cv1/conv/Conv_output_0: 3d632eba
/model.6/m/m.1/cv1/act/Sigmoid_output_0: 3c00e538
/model.6/m/m.1/cv1/act/Mul_output_0: 3d62fc04
/model.6/m/m.1/cv2/conv/Conv_output_0: 3d489674
/model.6/m/m.1/cv2/act/Sigmoid_output_0: 3c00714d
/model.6/m/m.1/cv2/act/Mul_output_0: 3d2e39ca
/model.6/m/m.1/Add_output_0: 3d3c5ce5
/model.6/m/m.2/cv1/conv/Conv_output_0: 3d60fdf6
/model.6/m/m.2/cv1/act/Sigmoid_output_0: 3c00a1bf
/model.6/m/m.2/cv1/act/Mul_output_0: 3d3ba4d7
/model.6/m/m.2/cv2/conv/Conv_output_0: 3d91577f
/model.6/m/m.2/cv2/act/Sigmoid_output_0: 3c00e94f
/model.6/m/m.2/cv2/act/Mul_output_0: 3d67f2e8
/model.6/m/m.2/Add_output_0: 3d7c2e04
/model.6/Concat_output_0: 3d98b602
/model.6/cv3/conv/Conv_output_0: 3d7174b4
/model.6/cv3/act/Sigmoid_output_0: 3c00df39
/model.6/cv3/act/Mul_output_0: 3d5cd7fd
/model.7/conv/Conv_output_0: 3d5fb2db
/model.7/act/Sigmoid_output_0: 3c00c4ce
/model.7/act/Mul_output_0: 3d4a7436
/model.8/cv1/conv/Conv_output_0: 3d4c4891
/model.8/cv2/conv/Conv_output_0: 3d85f9a5
/model.8/cv1/act/Sigmoid_output_0: 3bfe3ad3
/model.8/cv2/act/Sigmoid_output_0: 3c00f9d9
/model.8/cv1/act/Mul_output_0: 3d05b056
/model.8/cv2/act/Mul_output_0: 3d85f129
/model.8/m/m.0/cv1/conv/Conv_output_0: 3d890800
/model.8/m/m.0/cv1/act/Sigmoid_output_0: 3c00fb4a
/model.8/m/m.0/cv1/act/Mul_output_0: 3d8900db
/model.8/m/m.0/cv2/conv/Conv_output_0: 3d9d0ff8
/model.8/m/m.0/cv2/act/Sigmoid_output_0: 3c010016
/model.8/m/m.0/cv2/act/Mul_output_0: 3d9d0d9e
/model.8/m/m.0/Add_output_0: 3da494ee
/model.8/Concat_output_0: 3da494ee
/model.8/cv3/conv/Conv_output_0: 3d868325
/model.8/cv3/act/Sigmoid_output_0: 3c00d48a
/model.8/cv3/act/Mul_output_0: 3d5422fd
/model.9/cv1/conv/Conv_output_0: 3d40569a
/model.9/cv1/act/Sigmoid_output_0: 3c00ad58
/model.9/cv1/act/Mul_output_0: 3d3fd85d
/model.9/m/MaxPool_output_0: 3d3fd85d
/model.9/m_1/MaxPool_output_0: 3d3fd85d
/model.9/m_2/MaxPool_output_0: 3d3fd85d
/model.9/Concat_output_0: 3d3fd85d
/model.9/cv2/conv/Conv_output_0: 3d46c22e
/model.9/cv2/act/Sigmoid_output_0: 3c002ad6
/model.9/cv2/act/Mul_output_0: 3d21139e
/model.10/conv/Conv_output_0: 3d792a4d
/model.10/act/Sigmoid_output_0: 3c00e800
/model.10/act/Mul_output_0: 3d6646ea
/model.11/Resize_output_0: 3d6646ea
/model.12/Concat_output_0: 3d6646ea
/model.13/cv1/conv/Conv_output_0: 3d6e8c1e
/model.13/cv2/conv/Conv_output_0: 3d5c7f63
/model.13/cv1/act/Sigmoid_output_0: 3c0065fc
/model.13/cv2/act/Sigmoid_output_0: 3c00041b
/model.13/cv1/act/Mul_output_0: 3d2bbe30
/model.13/cv2/act/Mul_output_0: 3d1b8d2b
/model.13/m/m.0/cv1/conv/Conv_output_0: 3d5b2dd0
/model.13/m/m.0/cv1/act/Sigmoid_output_0: 3c00b9a7
/model.13/m/m.0/cv1/act/Mul_output_0: 3d44fce6
/model.13/m/m.0/cv2/conv/Conv_output_0: 3d7bd6fb
/model.13/m/m.0/cv2/act/Sigmoid_output_0: 3c00bd87
/model.13/m/m.0/cv2/act/Mul_output_0: 3d46c876
/model.13/Concat_output_0: 3d46c876
/model.13/cv3/conv/Conv_output_0: 3d943406
/model.13/cv3/act/Sigmoid_output_0: 3c00e87b
/model.13/cv3/act/Mul_output_0: 3d66e127
/model.14/conv/Conv_output_0: 3d416ecc
/model.14/act/Sigmoid_output_0: 3bffc602
/model.14/act/Mul_output_0: 3d1771a5
/model.15/Resize_output_0: 3d1771a5
/model.16/Concat_output_0: 3d77f362
/model.17/cv1/conv/Conv_output_0: 3d158b67
/model.17/cv2/conv/Conv_output_0: 3d2c60d4
/model.17/cv1/act/Sigmoid_output_0: 3bf361c2
/model.17/cv2/act/Sigmoid_output_0: 3bf5b033
/model.17/cv1/act/Mul_output_0: 3cab0eb7
/model.17/cv2/act/Mul_output_0: 3cb7ca87
/model.17/m/m.0/cv1/conv/Conv_output_0: 3d2fb200
/model.17/m/m.0/cv1/act/Sigmoid_output_0: 3c007468
/model.17/m/m.0/cv1/act/Mul_output_0: 3d2ef124
/model.17/m/m.0/cv2/conv/Conv_output_0: 3d54f515
/model.17/m/m.0/cv2/act/Sigmoid_output_0: 3c003719
/model.17/m/m.0/cv2/act/Mul_output_0: 3d2307cc
/model.17/Concat_output_0: 3d2307cc
/model.17/cv3/conv/Conv_output_0: 3d5cafb7
/model.17/cv3/act/Sigmoid_output_0: 3c003648
/model.17/cv3/act/Mul_output_0: 3d22e591
/model.18/conv/Conv_output_0: 3d741b78
/model.24/cv2.0/cv2.0.0/conv/Conv_output_0: 3dbd33fa
/model.24/cv3.0/cv3.0.0/conv/Conv_output_0: 3dc21ddd
/model.18/act/Sigmoid_output_0: 3c00d11e
/model.24/cv2.0/cv2.0.0/act/Sigmoid_output_0: 3c00dd46
/model.24/cv3.0/cv3.0.0/act/Sigmoid_output_0: 3c00d07c
/model.18/act/Mul_output_0: 3d51c5c4
/model.24/cv2.0/cv2.0.0/act/Mul_output_0: 3d5b11ca
/model.24/cv3.0/cv3.0.0/act/Mul_output_0: 3d515a35
/model.19/Concat_output_0: 3d51c5c4
/model.24/cv2.0/cv2.0.1/conv/Conv_output_0: 3e87a685
/model.24/cv3.0/cv3.0.1/conv/Conv_output_0: 3e92ce3b
/model.20/cv1/conv/Conv_output_0: 3d86d9cb
/model.20/cv2/conv/Conv_output_0: 3d5ccda0
/model.24/cv2.0/cv2.0.1/act/Sigmoid_output_0: 3c010204
/model.24/cv3.0/cv3.0.1/act/Sigmoid_output_0: 3c010204
/model.20/cv1/act/Sigmoid_output_0: 3c00fa49
/model.20/cv2/act/Sigmoid_output_0: 3c00deee
/model.24/cv2.0/cv2.0.1/act/Mul_output_0: 3e87a685
/model.24/cv3.0/cv3.0.1/act/Mul_output_0: 3e67e9d6
/model.20/cv1/act/Mul_output_0: 3d86d1b5
/model.20/cv2/act/Mul_output_0: 3d5c9193
/model.24/cv2.0/cv2.0.2/Conv_output_0: 3e0b4fca
/model.24/cv3.0/cv3.0.2/Conv_output_0: 3e44e442
/model.20/m/m.0/cv1/conv/Conv_output_0: 3d856fa2
/model.24/Concat_output_0: 3e44e442
/model.20/m/m.0/cv1/act/Sigmoid_output_0: 3c00f3a3
/model.24/Reshape_output_0: 3e44e442
/model.20/m/m.0/cv1/act/Mul_output_0: 3d797cff
/model.20/m/m.0/cv2/conv/Conv_output_0: 3d9e303f
/model.20/m/m.0/cv2/act/Sigmoid_output_0: 3c00d937
/model.20/m/m.0/cv2/act/Mul_output_0: 3d57a998
/model.20/Concat_output_0: 3d5c9193
/model.20/cv3/conv/Conv_output_0: 3dcdd23f
/model.20/cv3/act/Sigmoid_output_0: 3c00bd33
/model.20/cv3/act/Mul_output_0: 3d46a0a1
/model.21/conv/Conv_output_0: 3d961b3c
/model.24/cv2.1/cv2.1.0/conv/Conv_output_0: 3df56be5
/model.24/cv3.1/cv3.1.0/conv/Conv_output_0: 3de47772
/model.21/act/Sigmoid_output_0: 3c00f27d
/model.24/cv2.1/cv2.1.0/act/Sigmoid_output_0: 3c00f7ea
/model.24/cv3.1/cv3.1.0/act/Sigmoid_output_0: 3c0101a7
/model.21/act/Mul_output_0: 3d76ff21
/model.24/cv2.1/cv2.1.0/act/Mul_output_0: 3d82792b
/model.24/cv3.1/cv3.1.0/act/Mul_output_0: 3db830fb
/model.22/Concat_output_0: 3d76ff21
/model.24/cv2.1/cv2.1.1/conv/Conv_output_0: 3e6454e4
/model.24/cv3.1/cv3.1.1/conv/Conv_output_0: 3ea2ae39
/model.23/cv1/conv/Conv_output_0: 3da2e5ed
/model.23/cv2/conv/Conv_output_0: 3d8ae44f
/model.24/cv2.1/cv2.1.1/act/Sigmoid_output_0: 3c010204
/model.24/cv3.1/cv3.1.1/act/Sigmoid_output_0: 3c010204
/model.23/cv1/act/Sigmoid_output_0: 3c00fcd4
/model.23/cv2/act/Sigmoid_output_0: 3c00e753
/model.24/cv2.1/cv2.1.1/act/Mul_output_0: 3e6454e4
/model.24/cv3.1/cv3.1.1/act/Mul_output_0: 3ea2ae39
/model.23/cv1/act/Mul_output_0: 3d8d1a57
/model.23/cv2/act/Mul_output_0: 3d657247
/model.24/cv2.1/cv2.1.2/Conv_output_0: 3def4e01
/model.24/cv3.1/cv3.1.2/Conv_output_0: 3e587209
/model.23/m/m.0/cv1/conv/Conv_output_0: 3daeebf0
/model.24/Concat_1_output_0: 3e587209
/model.23/m/m.0/cv1/act/Sigmoid_output_0: 3c00fa89
/model.24/Reshape_1_output_0: 3e587209
/model.23/m/m.0/cv1/act/Mul_output_0: 3d875801
/model.23/m/m.0/cv2/conv/Conv_output_0: 3d98e16c
/model.23/m/m.0/cv2/act/Sigmoid_output_0: 3c00fdf9
/model.23/m/m.0/cv2/act/Mul_output_0: 3d9133a3
/model.23/Concat_output_0: 3d9133a3
/model.23/cv3/conv/Conv_output_0: 3e101052
/model.23/cv3/act/Sigmoid_output_0: 3c00f8ff
/model.23/cv3/act/Mul_output_0: 3d84591b
/model.24/cv2.2/cv2.2.0/conv/Conv_output_0: 3d915672
/model.24/cv3.2/cv3.2.0/conv/Conv_output_0: 3dfe8f17
/model.24/cv2.2/cv2.2.0/act/Sigmoid_output_0: 3c00fe00
/model.24/cv3.2/cv3.2.0/act/Sigmoid_output_0: 3c00fb84
/model.24/cv2.2/cv2.2.0/act/Mul_output_0: 3d9151ec
/model.24/cv3.2/cv3.2.0/act/Mul_output_0: 3d898ae3
/model.24/cv2.2/cv2.2.1/conv/Conv_output_0: 3e9ac061
/model.24/cv3.2/cv3.2.1/conv/Conv_output_0: 3eccdc8a
/model.24/cv2.2/cv2.2.1/act/Sigmoid_output_0: 3c010204
/model.24/cv3.2/cv3.2.1/act/Sigmoid_output_0: 3c010204
/model.24/cv2.2/cv2.2.1/act/Mul_output_0: 3e9ac061
/model.24/cv3.2/cv3.2.1/act/Mul_output_0: 3eccdc8a
/model.24/cv2.2/cv2.2.2/Conv_output_0: 3dad0aac
/model.24/cv3.2/cv3.2.2/Conv_output_0: 3ec08a7b
/model.24/Concat_2_output_0: 3ec08a7b
/model.24/Reshape_2_output_0: 3ec08a7b
/model.24/Concat_3_output_0: 3ec08a7b
/model.24/Split_output_0: 3e0b4fca
/model.24/Split_output_1: 3ec08a7b
/model.24/dfl/Reshape_output_0: 3e0b4fca
/model.24/Sigmoid_output_0: 3bdc1754
/model.24/dfl/Transpose_output_0: 3e0b4fca
/model.24/dfl/Softmax_output: 3bf839b7
/model.24/dfl/Softmax_output_0: 3bf839b7
/model.24/dfl/conv/Conv_output_0: 3de5b0cc
/model.24/dfl/Reshape_1_output_0: 3de5b0cc
/model.24/Mul_2_output_0: 40a089b4
/model.24/Add_1_output_0: 3f22fd29
/model.24/Add_2_output_0: 3fa089b4
/model.24/Slice_output_0: 3de5b0cc
/model.24/Slice_1_output_0: 3de12959
/model.24/Sub_output_0: 3f1fdf71
output0: 40a089b4
ONNXTRT_Broadcast_71_output: 3e810204
/model.24/Concat_4_output_0: 3f2089b4
/model.24/Constant_10_output_0_output: 3f204081
/model.24/Constant_11_output_0_output: 3c810204
/model.24/Constant_12_output_0_output: 3e810204
/model.24/Div_1_output_0: 3f2089b4
/model.24/Sub_1_output_0: 3e32cd49
ONNXTRT_Broadcast_output: 3c810204
/model.24/Constant_9_output_0_output: 3f204081
