TRT-101200-MinMaxCalibration
images: 3c010204
/model.0/conv/Conv_output_0: 3f2e8e83
/model.0/act/Sigmoid_output_0: 3c010204
/model.0/act/Mul_output_0: 3f2e8e83
/model.1/conv/Conv_output_0: 3f5b784d
/model.1/act/Sigmoid_output_0: 3c010204
/model.1/act/Mul_output_0: 3f09f5d1
/model.2/cv1/conv/Conv_output_0: 3efc5a1c
/model.2/cv1/act/Sigmoid_output_0: 3c010203
/model.2/cv1/act/Mul_output_0: 3dffb291
/model.2/Split_output_0: 3dffb291
/model.2/Split_output_1: 3d748316
/model.2/m.0/cv1/conv/Conv_output_0: 3da3ea87
/model.2/m.0/cv1/act/Sigmoid_output_0: 3c0100bc
/model.2/m.0/cv1/act/Mul_output_0: 3da3e8e7
/model.2/m.0/cv2/conv/Conv_output_0: 3e2a513f
/model.2/m.0/cv2/act/Sigmoid_output_0: 3c0101f8
/model.2/m.0/cv2/act/Mul_output_0: 3dd8d66b
/model.2/m.0/Add_output_0: 3de47a3e
/model.2/Concat_output_0: 3dffb291
/model.2/cv2/conv/Conv_output_0: 3e380d60
/model.2/cv2/act/Sigmoid_output_0: 3c0101e4
/model.2/cv2/act/Mul_output_0: 3dc96126
/model.3/conv/Conv_output_0: 3da1f258
/model.3/act/Sigmoid_output_0: 3c00f847
/model.3/act/Mul_output_0: 3d831575
/model.4/cv1/conv/Conv_output_0: 3d80613a
/model.4/cv1/act/Sigmoid_output_0: 3bff86f5
/model.4/cv1/act/Mul_output_0: 3d13f006
/model.4/Split_output_0: 3d13f006
/model.4/Split_output_1: 3cf703e9
/model.4/m.0/cv1/conv/Conv_output_0: 3d2a3bb1
/model.4/m.0/cv1/act/Sigmoid_output_0: 3bfd4a77
/model.4/m.0/cv1/act/Mul_output_0: 3cfc21a8
/model.4/m.0/cv2/conv/Conv_output_0: 3d6a098d
/model.4/m.0/cv2/act/Sigmoid_output_0: 3c009ce2
/model.4/m.0/cv2/act/Mul_output_0: 3d3a067a
/model.4/m.0/Add_output_0: 3d31de54
/model.4/Concat_output_0: 3d31de54
/model.4/cv2/conv/Conv_output_0: 3da1da69
/model.4/cv2/act/Sigmoid_output_0: 3c00e880
/model.4/cv2/act/Mul_output_0: 3d66e774
/model.5/conv/Conv_output_0: 3db7ff42
/model.5/act/Sigmoid_output_0: 3c00bd72
/model.5/act/Mul_output_0: 3d46be1e
/model.6/cv1/conv/Conv_output_0: 3dc3cc33
/model.6/cv1/act/Sigmoid_output_0: 3c0101d7
/model.6/cv1/act/Mul_output_0: 3dc3cbef
/model.6/m.0/m.0.0/attn/qkv/conv/Conv_output_0: 3d96604e
/model.6/m.0/m.0.0/attn/Reshape_output_0: 3d96604e
/model.6/m.0/m.0.0/attn/Transpose_output_0: 3d96604e
/model.6/m.0/m.0.0/attn/Reshape_2_output_0: 3d96604e
/model.6/m.0/m.0.0/attn/Transpose_1_output_0: 3d96604e
/model.6/m.0/m.0.0/attn/Split_output_0: 3cdf23f2
/model.6/m.0/m.0.0/attn/Split_output_1: 3ceda9cf
/model.6/m.0/m.0.0/attn/Split_output_2: 3d96604e
/model.6/m.0/m.0.0/attn/Transpose_2_output_0: 3cdf23f2
/model.6/m.0/m.0.0/attn/Transpose_5_output_0: 3d96604e
/model.6/m.0/m.0.0/attn/MatMul_output_0: 3eb0e2a7
/model.6/m.0/m.0.0/attn/Reshape_6_output_0: 3d96604e
/model.6/m.0/m.0.0/attn/Constant_6_output_0_output: 3ab671d7
ONNXTRT_Broadcast_output: 3ab671d7
/model.6/m.0/m.0.0/attn/Mul_output_0: 3d7a2758
/model.6/m.0/m.0.0/attn/Transpose_7_output_0: 3d96604e
/model.6/m.0/m.0.0/attn/Softmax_output: 3b2c6c80
/model.6/m.0/m.0.0/attn/Softmax_output_0: 3b2c6c80
/model.6/m.0/m.0.0/attn/pe/conv/Conv_output_0: 3d8c4edd
/model.6/m.0/m.0.0/attn/Transpose_3_output_0: 3b2c6c80
/model.6/m.0/m.0.0/attn/MatMul_1_output_0: 3d4659dc
/model.6/m.0/m.0.0/attn/Transpose_4_output_0: 3d4659dc
/model.6/m.0/m.0.0/attn/Reshape_5_output_0: 3d4659dc
/model.6/m.0/m.0.0/attn/Transpose_6_output_0: 3d4659dc
/model.6/m.0/m.0.0/attn/Add_output_0: 3d8389d8
/model.6/m.0/m.0.0/attn/proj/conv/Conv_output_0: 3d01f76d
/model.6/m.0/m.0.0/Add_output_0: 3dc5fec1
/model.6/m.0/m.0.0/mlp/mlp.0/conv/Conv_output_0: 3d89908d
/model.6/m.0/m.0.0/mlp/mlp.0/act/Sigmoid_output_0: 3c001d07
/model.6/m.0/m.0.0/mlp/mlp.0/act/Mul_output_0: 3d1f001a
/model.6/m.0/m.0.0/mlp/mlp.1/conv/Conv_output_0: 3d1e3341
/model.6/m.0/m.0.0/Add_1_output_0: 3dcc52f2
/model.6/m.0/m.0.1/attn/qkv/conv/Conv_output_0: 3daf3ac6
/model.6/m.0/m.0.1/attn/Reshape_output_0: 3daf3ac6
/model.6/m.0/m.0.1/attn/Transpose_output_0: 3daf3ac6
/model.6/m.0/m.0.1/attn/Reshape_2_output_0: 3daf3ac6
/model.6/m.0/m.0.1/attn/Transpose_1_output_0: 3daf3ac6
/model.6/m.0/m.0.1/attn/Split_output_0: 3d93a50e
/model.6/m.0/m.0.1/attn/Split_output_1: 3daf3ac6
/model.6/m.0/m.0.1/attn/Split_output_2: 3d89e14f
/model.6/m.0/m.0.1/attn/Transpose_2_output_0: 3d93a50e
/model.6/m.0/m.0.1/attn/Transpose_5_output_0: 3d89e14f
/model.6/m.0/m.0.1/attn/MatMul_output_0: 3f809c15
/model.6/m.0/m.0.1/attn/Reshape_6_output_0: 3d89e14f
ONNXTRT_Broadcast_24_output: 3ab671d7
/model.6/m.0/m.0.1/attn/Mul_output_0: 3e35e1af
/model.6/m.0/m.0.1/attn/Transpose_7_output_0: 3d89e14f
/model.6/m.0/m.0.1/attn/Softmax_output: 3c00cb97
/model.6/m.0/m.0.1/attn/Softmax_output_0: 3c00cb97
/model.6/m.0/m.0.1/attn/pe/conv/Conv_output_0: 3d250222
/model.6/m.0/m.0.1/attn/Transpose_3_output_0: 3c00cb97
/model.6/m.0/m.0.1/attn/MatMul_1_output_0: 3d4706e9
/model.6/m.0/m.0.1/attn/Transpose_4_output_0: 3d4706e9
/model.6/m.0/m.0.1/attn/Reshape_5_output_0: 3d4706e9
/model.6/m.0/m.0.1/attn/Transpose_6_output_0: 3d4706e9
/model.6/m.0/m.0.1/attn/Add_output_0: 3d197bd2
/model.6/m.0/m.0.1/attn/proj/conv/Conv_output_0: 3d1ca8b0
/model.6/m.0/m.0.1/Add_output_0: 3dd7cf4d
/model.6/m.0/m.0.1/mlp/mlp.0/conv/Conv_output_0: 3db65961
/model.6/m.0/m.0.1/mlp/mlp.0/act/Sigmoid_output_0: 3c00c1ec
/model.6/m.0/m.0.1/mlp/mlp.0/act/Mul_output_0: 3d48f3b7
/model.6/m.0/m.0.1/mlp/mlp.1/conv/Conv_output_0: 3d1a613b
/model.6/m.0/m.0.1/Add_1_output_0: 3dc26ac2
/model.6/m.1/m.1.0/attn/qkv/conv/Conv_output_0: 3dbbb176
/model.6/m.1/m.1.0/attn/Reshape_output_0: 3dbbb176
/model.6/m.1/m.1.0/attn/Transpose_output_0: 3dbbb176
/model.6/m.1/m.1.0/attn/Reshape_2_output_0: 3dbbb176
/model.6/m.1/m.1.0/attn/Transpose_1_output_0: 3dbbb176
/model.6/m.1/m.1.0/attn/Split_output_0: 3d2956e0
/model.6/m.1/m.1.0/attn/Split_output_1: 3d431733
/model.6/m.1/m.1.0/attn/Split_output_2: 3dbbb176
/model.6/m.1/m.1.0/attn/Transpose_2_output_0: 3d2956e0
/model.6/m.1/m.1.0/attn/Transpose_5_output_0: 3dbbb176
/model.6/m.1/m.1.0/attn/MatMul_output_0: 3f12fdbe
/model.6/m.1/m.1.0/attn/Reshape_6_output_0: 3dbbb176
ONNXTRT_Broadcast_36_output: 3ab671d7
/model.6/m.1/m.1.0/attn/Mul_output_0: 3dcfe07e
/model.6/m.1/m.1.0/attn/Transpose_7_output_0: 3dbbb176
/model.6/m.1/m.1.0/attn/Softmax_output: 3bfaf66a
/model.6/m.1/m.1.0/attn/Softmax_output_0: 3bfaf66a
/model.6/m.1/m.1.0/attn/pe/conv/Conv_output_0: 3d3b2213
/model.6/m.1/m.1.0/attn/Transpose_3_output_0: 3bfaf66a
/model.6/m.1/m.1.0/attn/MatMul_1_output_0: 3d64a447
/model.6/m.1/m.1.0/attn/Transpose_4_output_0: 3d64a447
/model.6/m.1/m.1.0/attn/Reshape_5_output_0: 3d64a447
/model.6/m.1/m.1.0/attn/Transpose_6_output_0: 3d64a447
/model.6/m.1/m.1.0/attn/Add_output_0: 3d51c9a2
/model.6/m.1/m.1.0/attn/proj/conv/Conv_output_0: 3d246599
/model.6/m.1/m.1.0/Add_output_0: 3dc51731
/model.6/m.1/m.1.0/mlp/mlp.0/conv/Conv_output_0: 3d82587e
/model.6/m.1/m.1.0/mlp/mlp.0/act/Sigmoid_output_0: 3c004391
/model.6/m.1/m.1.0/mlp/mlp.0/act/Mul_output_0: 3d25226b
/model.6/m.1/m.1.0/mlp/mlp.1/conv/Conv_output_0: 3d2ed914
/model.6/m.1/m.1.0/Add_1_output_0: 3dca273a
/model.6/m.1/m.1.1/attn/qkv/conv/Conv_output_0: 3d97397c
/model.6/m.1/m.1.1/attn/Reshape_output_0: 3d97397c
/model.6/m.1/m.1.1/attn/Transpose_output_0: 3d97397c
/model.6/m.1/m.1.1/attn/Reshape_2_output_0: 3d97397c
/model.6/m.1/m.1.1/attn/Transpose_1_output_0: 3d97397c
/model.6/m.1/m.1.1/attn/Split_output_0: 3d4a9074
/model.6/m.1/m.1.1/attn/Split_output_1: 3d43c7a5
/model.6/m.1/m.1.1/attn/Split_output_2: 3d97397c
/model.6/m.1/m.1.1/attn/Transpose_2_output_0: 3d4a9074
/model.6/m.1/m.1.1/attn/Transpose_5_output_0: 3d97397c
/model.6/m.1/m.1.1/attn/MatMul_output_0: 3f45b146
/model.6/m.1/m.1.1/attn/Reshape_6_output_0: 3d97397c
ONNXTRT_Broadcast_48_output: 3ab671d7
/model.6/m.1/m.1.1/attn/Mul_output_0: 3e0bca28
/model.6/m.1/m.1.1/attn/Transpose_7_output_0: 3d97397c
/model.6/m.1/m.1.1/attn/Softmax_output: 3c00d198
/model.6/m.1/m.1.1/attn/Softmax_output_0: 3c00d198
/model.6/m.1/m.1.1/attn/pe/conv/Conv_output_0: 3d427570
/model.6/m.1/m.1.1/attn/Transpose_3_output_0: 3c00d198
/model.6/m.1/m.1.1/attn/MatMul_1_output_0: 3d895fe2
/model.6/m.1/m.1.1/attn/Transpose_4_output_0: 3d895fe2
/model.6/m.1/m.1.1/attn/Reshape_5_output_0: 3d895fe2
/model.6/m.1/m.1.1/attn/Transpose_6_output_0: 3d895fe2
/model.6/m.1/m.1.1/attn/Add_output_0: 3d3b2ad6
/model.6/m.1/m.1.1/attn/proj/conv/Conv_output_0: 3d643dd4
/model.6/m.1/m.1.1/Add_output_0: 3e09b71b
/model.6/m.1/m.1.1/mlp/mlp.0/conv/Conv_output_0: 3d7f3c87
/model.6/m.1/m.1.1/mlp/mlp.0/act/Sigmoid_output_0: 3c00d94a
/model.6/m.1/m.1.1/mlp/mlp.0/act/Mul_output_0: 3d57b872
/model.6/m.1/m.1.1/mlp/mlp.1/conv/Conv_output_0: 3d926cc1
/model.6/m.1/m.1.1/Add_1_output_0: 3e0b225b
/model.6/Concat_output_0: 3e0b225b
/model.6/cv2/conv/Conv_output_0: 3d6ff9e5
/model.6/cv2/act/Sigmoid_output_0: 3c00d1b9
/model.6/cv2/act/Mul_output_0: 3d522de6
/model.7/conv/Conv_output_0: 3d61aeeb
/model.7/act/Sigmoid_output_0: 3c00d207
/model.7/act/Mul_output_0: 3d5262ba
/model.8/cv1/conv/Conv_output_0: 3db5d28b
/model.8/cv1/act/Sigmoid_output_0: 3c010198
/model.8/cv1/act/Mul_output_0: 3db5d1f3
/model.8/m.0/m.0.0/attn/qkv/conv/Conv_output_0: 3d653b7b
/model.8/m.0/m.0.0/attn/Reshape_output_0: 3d653b7b
/model.8/m.0/m.0.0/attn/Transpose_output_0: 3d653b7b
/model.8/m.0/m.0.0/attn/Reshape_1_output_0: 3d653b7b
/model.8/m.0/m.0.0/attn/Transpose_1_output_0: 3d653b7b
/model.8/m.0/m.0.0/attn/Split_output_0: 3d2669f0
/model.8/m.0/m.0.0/attn/Split_output_1: 3d29fe4d
/model.8/m.0/m.0.0/attn/Split_output_2: 3d653b7b
/model.8/m.0/m.0.0/attn/Transpose_2_output_0: 3d2669f0
/model.8/m.0/m.0.0/attn/Transpose_5_output_0: 3d653b7b
/model.8/m.0/m.0.0/attn/MatMul_output_0: 3ed411ef
/model.8/m.0/m.0.0/attn/Reshape_3_output_0: 3d653b7b
ONNXTRT_Broadcast_60_output: 3ab671d7
/model.8/m.0/m.0.0/attn/Mul_output_0: 3d95f4c8
/model.8/m.0/m.0.0/attn/Transpose_7_output_0: 3d653b7b
/model.8/m.0/m.0.0/attn/Softmax_output: 3ba45c0d
/model.8/m.0/m.0.0/attn/Softmax_output_0: 3ba45c0d
/model.8/m.0/m.0.0/attn/pe/conv/Conv_output_0: 3d84c347
/model.8/m.0/m.0.0/attn/Transpose_3_output_0: 3ba45c0d
/model.8/m.0/m.0.0/attn/MatMul_1_output_0: 3ce0ce29
/model.8/m.0/m.0.0/attn/Transpose_4_output_0: 3ce0ce29
/model.8/m.0/m.0.0/attn/Reshape_2_output_0: 3ce0ce29
/model.8/m.0/m.0.0/attn/Transpose_6_output_0: 3ce0ce29
/model.8/m.0/m.0.0/attn/Add_output_0: 3d7e08cb
/model.8/m.0/m.0.0/attn/proj/conv/Conv_output_0: 3d0d47ca
/model.8/m.0/m.0.0/Add_output_0: 3dbdfed9
/model.8/m.0/m.0.0/mlp/mlp.0/conv/Conv_output_0: 3d6751db
/model.8/m.0/m.0.0/mlp/mlp.0/act/Sigmoid_output_0: 3c00013a
/model.8/m.0/m.0.0/mlp/mlp.0/act/Mul_output_0: 3d1b2cbd
/model.8/m.0/m.0.0/mlp/mlp.1/conv/Conv_output_0: 3d53b1cc
/model.8/m.0/m.0.0/Add_1_output_0: 3dd14296
/model.8/m.0/m.0.1/attn/qkv/conv/Conv_output_0: 3d7743d2
/model.8/m.0/m.0.1/attn/Reshape_output_0: 3d7743d2
/model.8/m.0/m.0.1/attn/Transpose_output_0: 3d7743d2
/model.8/m.0/m.0.1/attn/Reshape_1_output_0: 3d7743d2
/model.8/m.0/m.0.1/attn/Transpose_1_output_0: 3d7743d2
/model.8/m.0/m.0.1/attn/Split_output_0: 3d3737bd
/model.8/m.0/m.0.1/attn/Split_output_1: 3d7743d2
/model.8/m.0/m.0.1/attn/Split_output_2: 3d716aae
/model.8/m.0/m.0.1/attn/Transpose_2_output_0: 3d3737bd
/model.8/m.0/m.0.1/attn/Transpose_5_output_0: 3d716aae
/model.8/m.0/m.0.1/attn/MatMul_output_0: 3f4ccefd
/model.8/m.0/m.0.1/attn/Reshape_3_output_0: 3d716aae
ONNXTRT_Broadcast_72_output: 3ab671d7
/model.8/m.0/m.0.1/attn/Mul_output_0: 3e10d24f
/model.8/m.0/m.0.1/attn/Transpose_7_output_0: 3d716aae
/model.8/m.0/m.0.1/attn/Softmax_output: 3bd2f1a5
/model.8/m.0/m.0.1/attn/Softmax_output_0: 3bd2f1a5
/model.8/m.0/m.0.1/attn/pe/conv/Conv_output_0: 3d074229
/model.8/m.0/m.0.1/attn/Transpose_3_output_0: 3bd2f1a5
/model.8/m.0/m.0.1/attn/MatMul_1_output_0: 3d4b1d28
/model.8/m.0/m.0.1/attn/Transpose_4_output_0: 3d4b1d28
/model.8/m.0/m.0.1/attn/Reshape_2_output_0: 3d4b1d28
/model.8/m.0/m.0.1/attn/Transpose_6_output_0: 3d4b1d28
/model.8/m.0/m.0.1/attn/Add_output_0: 3d11c884
/model.8/m.0/m.0.1/attn/proj/conv/Conv_output_0: 3cf391df
/model.8/m.0/m.0.1/Add_output_0: 3dc5b7fd
/model.8/m.0/m.0.1/mlp/mlp.0/conv/Conv_output_0: 3d8b71f7
/model.8/m.0/m.0.1/mlp/mlp.0/act/Sigmoid_output_0: 3c008e7e
/model.8/m.0/m.0.1/mlp/mlp.0/act/Mul_output_0: 3d35a6c9
/model.8/m.0/m.0.1/mlp/mlp.1/conv/Conv_output_0: 3d0f4326
/model.8/m.0/m.0.1/Add_1_output_0: 3dcd9fa6
/model.8/m.1/m.1.0/attn/qkv/conv/Conv_output_0: 3d6bf435
/model.8/m.1/m.1.0/attn/Reshape_output_0: 3d6bf435
/model.8/m.1/m.1.0/attn/Transpose_output_0: 3d6bf435
/model.8/m.1/m.1.0/attn/Reshape_1_output_0: 3d6bf435
/model.8/m.1/m.1.0/attn/Transpose_1_output_0: 3d6bf435
/model.8/m.1/m.1.0/attn/Split_output_0: 3d34d1ca
/model.8/m.1/m.1.0/attn/Split_output_1: 3d4472a9
/model.8/m.1/m.1.0/attn/Split_output_2: 3d6bf435
/model.8/m.1/m.1.0/attn/Transpose_2_output_0: 3d34d1ca
/model.8/m.1/m.1.0/attn/Transpose_5_output_0: 3d6bf435
/model.8/m.1/m.1.0/attn/MatMul_output_0: 3f2b8d07
/model.8/m.1/m.1.0/attn/Reshape_3_output_0: 3d6bf435
ONNXTRT_Broadcast_84_output: 3ab671d7
/model.8/m.1/m.1.0/attn/Mul_output_0: 3df29c0e
/model.8/m.1/m.1.0/attn/Transpose_7_output_0: 3d6bf435
/model.8/m.1/m.1.0/attn/Softmax_output: 3bd5634b
/model.8/m.1/m.1.0/attn/Softmax_output_0: 3bd5634b
/model.8/m.1/m.1.0/attn/pe/conv/Conv_output_0: 3d3ad838
/model.8/m.1/m.1.0/attn/Transpose_3_output_0: 3bd5634b
/model.8/m.1/m.1.0/attn/MatMul_1_output_0: 3d3bf736
/model.8/m.1/m.1.0/attn/Transpose_4_output_0: 3d3bf736
/model.8/m.1/m.1.0/attn/Reshape_2_output_0: 3d3bf736
/model.8/m.1/m.1.0/attn/Transpose_6_output_0: 3d3bf736
/model.8/m.1/m.1.0/attn/Add_output_0: 3d05d3db
/model.8/m.1/m.1.0/attn/proj/conv/Conv_output_0: 3d3884fa
/model.8/m.1/m.1.0/Add_output_0: 3de20aea
/model.8/m.1/m.1.0/mlp/mlp.0/conv/Conv_output_0: 3d7c6924
/model.8/m.1/m.1.0/mlp/mlp.0/act/Sigmoid_output_0: 3c00e7f2
/model.8/m.1/m.1.0/mlp/mlp.0/act/Mul_output_0: 3d663530
/model.8/m.1/m.1.0/mlp/mlp.1/conv/Conv_output_0: 3d38cfa1
/model.8/m.1/m.1.0/Add_1_output_0: 3de84db0
/model.8/m.1/m.1.1/attn/qkv/conv/Conv_output_0: 3d8dc546
/model.8/m.1/m.1.1/attn/Reshape_output_0: 3d8dc546
/model.8/m.1/m.1.1/attn/Transpose_output_0: 3d8dc546
/model.8/m.1/m.1.1/attn/Reshape_1_output_0: 3d8dc546
/model.8/m.1/m.1.1/attn/Transpose_1_output_0: 3d8dc546
/model.8/m.1/m.1.1/attn/Split_output_0: 3d28d7ed
/model.8/m.1/m.1.1/attn/Split_output_1: 3d2d6531
/model.8/m.1/m.1.1/attn/Split_output_2: 3d8dc546
/model.8/m.1/m.1.1/attn/Transpose_2_output_0: 3d28d7ed
/model.8/m.1/m.1.1/attn/Transpose_5_output_0: 3d8dc546
/model.8/m.1/m.1.1/attn/MatMul_output_0: 3f13649e
/model.8/m.1/m.1.1/attn/Reshape_3_output_0: 3d8dc546
ONNXTRT_Broadcast_96_output: 3ab671d7
/model.8/m.1/m.1.1/attn/Mul_output_0: 3dd071fb
/model.8/m.1/m.1.1/attn/Transpose_7_output_0: 3d8dc546
/model.8/m.1/m.1.1/attn/Softmax_output: 3bb75aa5
/model.8/m.1/m.1.1/attn/Softmax_output_0: 3bb75aa5
/model.8/m.1/m.1.1/attn/pe/conv/Conv_output_0: 3d575957
/model.8/m.1/m.1.1/attn/Transpose_3_output_0: 3bb75aa5
/model.8/m.1/m.1.1/attn/MatMul_1_output_0: 3d5447cc
/model.8/m.1/m.1.1/attn/Transpose_4_output_0: 3d5447cc
/model.8/m.1/m.1.1/attn/Reshape_2_output_0: 3d5447cc
/model.8/m.1/m.1.1/attn/Transpose_6_output_0: 3d5447cc
/model.8/m.1/m.1.1/attn/Add_output_0: 3d39fbab
/model.8/m.1/m.1.1/attn/proj/conv/Conv_output_0: 3d574c23
/model.8/m.1/m.1.1/Add_output_0: 3dff3fef
/model.8/m.1/m.1.1/mlp/mlp.0/conv/Conv_output_0: 3d957763
/model.8/m.1/m.1.1/mlp/mlp.0/act/Sigmoid_output_0: 3c00ad05
/model.8/m.1/m.1.1/mlp/mlp.0/act/Mul_output_0: 3d3fb898
/model.8/m.1/m.1.1/mlp/mlp.1/conv/Conv_output_0: 3d434ef2
/model.8/m.1/m.1.1/Add_1_output_0: 3dec1ed6
/model.8/Concat_output_0: 3dec1ed6
/model.8/cv2/conv/Conv_output_0: 3d77fcbf
/model.8/cv2/act/Sigmoid_output_0: 3c00cd62
/model.8/cv2/act/Mul_output_0: 3d4f5f3d
/model.9/Resize_output_0: 3d4f5f3d
/model.10/Concat_output_0: 3d522de6
/model.11/cv1/conv/Conv_output_0: 3d762164
/model.11/cv1/act/Sigmoid_output_0: 3c00f202
/model.11/cv1/act/Mul_output_0: 3d7602da
/model.11/m.0/cv1/conv/Conv_output_0: 3d0decf6
/model.11/m.0/cv2/conv/Conv_output_0: 3d9c472d
/model.11/m.0/cv1/act/Sigmoid_output_0: 3bf05f86
/model.11/m.0/cv2/act/Sigmoid_output_0: 3c00fffd
/model.11/m.0/cv1/act/Mul_output_0: 3c9cf502
/model.11/m.0/cv2/act/Mul_output_0: 3d9c44b8
/model.11/m.0/m/m.0/cv1/conv/Conv_output_0: 3d2f5216
/model.11/m.0/m/m.0/cv1/act/Sigmoid_output_0: 3c0072c2
/model.11/m.0/m/m.0/cv1/act/Mul_output_0: 3d2e8f66
/model.11/m.0/m/m.0/cv2/conv/Conv_output_0: 3d53112a
/model.11/m.0/m/m.0/cv2/act/Sigmoid_output_0: 3c009bc2
/model.11/m.0/m/m.0/cv2/act/Mul_output_0: 3d39a96f
/model.11/m.0/m/m.0/Add_output_0: 3d32ed47
/model.11/m.0/m/m.1/cv1/conv/Conv_output_0: 3d6c95d0
/model.11/m.0/m/m.1/cv1/act/Sigmoid_output_0: 3c001388
/model.11/m.0/m/m.1/cv1/act/Mul_output_0: 3d1da4a5
/model.11/m.0/m/m.1/cv2/conv/Conv_output_0: 3d893524
/model.11/m.0/m/m.1/cv2/act/Sigmoid_output_0: 3c00fb5d
/model.11/m.0/m/m.1/cv2/act/Mul_output_0: 3d892e11
/model.11/m.0/m/m.1/Add_output_0: 3d85d90b
/model.11/m.0/Concat_output_0: 3d9c44b8
/model.11/m.0/cv3/conv/Conv_output_0: 3d6ad803
/model.11/m.0/cv3/act/Sigmoid_output_0: 3c00331f
/model.11/m.0/cv3/act/Mul_output_0: 3d22629d
/model.11/Concat_output_0: 3d7602da
/model.11/cv2/conv/Conv_output_0: 3d3dbb62
/model.11/cv2/act/Sigmoid_output_0: 3bffdf6d
/model.11/cv2/act/Mul_output_0: 3d18f6f2
/model.12/Resize_output_0: 3d18f6f2
/model.13/Concat_output_0: 3d66e774
/model.14/cv1/conv/Conv_output_0: 3d174cfa
/model.14/cv1/act/Sigmoid_output_0: 3bfa89f2
/model.14/cv1/act/Mul_output_0: 3cdbf596
/model.14/m.0/cv1/conv/Conv_output_0: 3cb618f9
/model.14/m.0/cv2/conv/Conv_output_0: 3d3b57dd
/model.14/m.0/cv1/act/Sigmoid_output_0: 3bc7f487
/model.14/m.0/cv2/act/Sigmoid_output_0: 3c0090e9
/model.14/m.0/cv1/act/Mul_output_0: 3bf7441b
/model.14/m.0/cv2/act/Mul_output_0: 3d36586f
/model.14/m.0/m/m.0/cv1/conv/Conv_output_0: 3d017a32
/model.14/m.0/m/m.0/cv1/act/Sigmoid_output_0: 3bf5c2e8
/model.14/m.0/m/m.0/cv1/act/Mul_output_0: 3cb83b0a
/model.14/m.0/m/m.0/cv2/conv/Conv_output_0: 3d2c74d4
/model.14/m.0/m/m.0/cv2/act/Sigmoid_output_0: 3bfecdf2
/model.14/m.0/m/m.0/cv2/act/Mul_output_0: 3d0b4f04
/model.14/m.0/m/m.0/Add_output_0: 3d06cbcb
/model.14/m.0/m/m.1/cv1/conv/Conv_output_0: 3d4e0ae6
/model.14/m.0/m/m.1/cv1/act/Sigmoid_output_0: 3bfc4677
/model.14/m.0/m/m.1/cv1/act/Mul_output_0: 3cee972e
/model.14/m.0/m/m.1/cv2/conv/Conv_output_0: 3d9f48e0
/model.14/m.0/m/m.1/cv2/act/Sigmoid_output_0: 3c010054
/model.14/m.0/m/m.1/cv2/act/Mul_output_0: 3d9f46ca
/model.14/m.0/m/m.1/Add_output_0: 3d9ebe04
/model.14/m.0/Concat_output_0: 3d9ebe04
/model.14/m.0/cv3/conv/Conv_output_0: 3d7c17fa
/model.14/m.0/cv3/act/Sigmoid_output_0: 3bfdf9e4
/model.14/m.0/cv3/act/Mul_output_0: 3d03775a
/model.14/Concat_output_0: 3d03775a
/model.14/cv2/conv/Conv_output_0: 3d85dee9
/model.14/cv2/act/Sigmoid_output_0: 3c0025f5
/model.14/cv2/act/Mul_output_0: 3d2053ac
/model.15/conv/Conv_output_0: 3d8bedfa
/model.21/cv2.0/cv2.0.0/conv/Conv_output_0: 3db0d14d
/model.21/cv3.0/cv3.0.0/cv3.0.0.0/conv/Conv_output_0: 3d706e5a
/model.15/act/Sigmoid_output_0: 3c00409e
/model.21/cv2.0/cv2.0.0/act/Sigmoid_output_0: 3c00b3ca
/model.21/cv3.0/cv3.0.0/cv3.0.0.0/act/Sigmoid_output_0: 3c00eeeb
/model.15/act/Mul_output_0: 3d24a007
/model.21/cv2.0/cv2.0.0/act/Mul_output_0: 3d4270f1
/model.21/cv3.0/cv3.0.0/cv3.0.0.0/act/Mul_output_0: 3d704ac2
/model.16/Concat_output_0: 3d24a007
/model.21/cv2.0/cv2.0.1/conv/Conv_output_0: 3ea4d3a6
/model.21/cv3.0/cv3.0.0/cv3.0.0.1/conv/Conv_output_0: 3d8d9ab0
/model.17/cv1/conv/Conv_output_0: 3d61f3fc
/model.21/cv2.0/cv2.0.1/act/Sigmoid_output_0: 3c010204
/model.21/cv3.0/cv3.0.0/cv3.0.0.1/act/Sigmoid_output_0: 3c00eb45
/model.17/cv1/act/Sigmoid_output_0: 3c00e41a
/model.21/cv2.0/cv2.0.1/act/Mul_output_0: 3ea4d3a6
/model.21/cv3.0/cv3.0.0/cv3.0.0.1/act/Mul_output_0: 3d6aa1f8
/model.17/cv1/act/Mul_output_0: 3d61bf97
/model.21/cv2.0/cv2.0.2/Conv_output_0: 3debda13
/model.21/cv3.0/cv3.0.1/cv3.0.1.0/conv/Conv_output_0: 3dd04e06
/model.17/m.0/cv1/conv/Conv_output_0: 3cf1d2cb
/model.17/m.0/cv2/conv/Conv_output_0: 3d9d9f7c
/model.21/cv3.0/cv3.0.1/cv3.0.1.0/act/Sigmoid_output_0: 3c010190
/model.17/m.0/cv1/act/Sigmoid_output_0: 3bdd1ec6
/model.17/m.0/cv2/act/Sigmoid_output_0: 3c010026
/model.21/cv3.0/cv3.0.1/cv3.0.1.0/act/Mul_output_0: 3db4a36f
/model.17/m.0/cv1/act/Mul_output_0: 3c45f8f5
/model.17/m.0/cv2/act/Mul_output_0: 3d9d9d34
/model.21/cv3.0/cv3.0.1/cv3.0.1.1/conv/Conv_output_0: 3e6f5481
/model.17/m.0/m/m.0/cv1/conv/Conv_output_0: 3d235682
/model.21/cv3.0/cv3.0.1/cv3.0.1.1/act/Sigmoid_output_0: 3c010204
/model.17/m.0/m/m.0/cv1/act/Sigmoid_output_0: 3bfc33bb
/model.21/cv3.0/cv3.0.1/cv3.0.1.1/act/Mul_output_0: 3e6f5481
/model.17/m.0/m/m.0/cv1/act/Mul_output_0: 3cedb3df
/model.21/cv3.0/cv3.0.2/Conv_output_0: 3e355df8
/model.17/m.0/m/m.0/cv2/conv/Conv_output_0: 3d435349
/model.21/Concat_output_0: 3e355df8
/model.17/m.0/m/m.0/cv2/act/Sigmoid_output_0: 3bff77c8
/model.21/Reshape_output_0: 3e355df8
/model.17/m.0/m/m.0/cv2/act/Mul_output_0: 3d13252e
/model.17/m.0/m/m.0/Add_output_0: 3d2a8e04
/model.17/m.0/m/m.1/cv1/conv/Conv_output_0: 3d7ecc6e
/model.17/m.0/m/m.1/cv1/act/Sigmoid_output_0: 3c00f5c8
/model.17/m.0/m/m.1/cv1/act/Mul_output_0: 3d7eb444
/model.17/m.0/m/m.1/cv2/conv/Conv_output_0: 3dcf4f8e
/model.17/m.0/m/m.1/cv2/act/Sigmoid_output_0: 3c0101ee
/model.17/m.0/m/m.1/cv2/act/Mul_output_0: 3dcf4f6b
/model.17/m.0/m/m.1/Add_output_0: 3e003b0e
/model.17/m.0/Concat_output_0: 3e003b0e
/model.17/m.0/cv3/conv/Conv_output_0: 3e17a6fd
/model.17/m.0/cv3/act/Sigmoid_output_0: 3c00f0ea
/model.17/m.0/cv3/act/Mul_output_0: 3d73df37
/model.17/Concat_output_0: 3d73df37
/model.17/cv2/conv/Conv_output_0: 3e0420f1
/model.17/cv2/act/Sigmoid_output_0: 3c0100e4
/model.17/cv2/act/Mul_output_0: 3da5f7d4
/model.18/conv/Conv_output_0: 3d7496d3
/model.21/cv2.1/cv2.1.0/conv/Conv_output_0: 3db2b460
/model.21/cv3.1/cv3.1.0/cv3.1.0.0/conv/Conv_output_0: 3daf9617
/model.18/act/Sigmoid_output_0: 3c00ee54
/model.21/cv2.1/cv2.1.0/act/Sigmoid_output_0: 3c00f86d
/model.21/cv3.1/cv3.1.0/cv3.1.0.0/act/Sigmoid_output_0: 3c010167
/model.18/act/Mul_output_0: 3d6f4e2f
/model.21/cv2.1/cv2.1.0/act/Mul_output_0: 3d83560f
/model.21/cv3.1/cv3.1.0/cv3.1.0.0/act/Mul_output_0: 3daf9542
/model.19/Concat_output_0: 3d6f4e2f
/model.21/cv2.1/cv2.1.1/conv/Conv_output_0: 3e89be21
/model.21/cv3.1/cv3.1.0/cv3.1.0.1/conv/Conv_output_0: 3e425571
/model.20/cv1/conv/Conv_output_0: 3d66c142
/model.21/cv2.1/cv2.1.1/act/Sigmoid_output_0: 3c010204
/model.21/cv3.1/cv3.1.0/cv3.1.0.1/act/Sigmoid_output_0: 3c00ecbc
/model.20/cv1/act/Sigmoid_output_0: 3c00d2be
/model.21/cv2.1/cv2.1.1/act/Mul_output_0: 3e89be21
/model.21/cv3.1/cv3.1.0/cv3.1.0.1/act/Mul_output_0: 3d6ccac2
/model.20/cv1/act/Mul_output_0: 3d52e08b
/model.21/cv2.1/cv2.1.2/Conv_output_0: 3dc9fe19
/model.21/cv3.1/cv3.1.1/cv3.1.1.0/conv/Conv_output_0: 3e402428
/model.20/Split_output_0: 3d218f0d
/model.20/Split_output_1: 3d52e08b
/model.21/cv3.1/cv3.1.1/cv3.1.1.0/act/Sigmoid_output_0: 3c010204
/model.20/m.0/cv1/conv/Conv_output_0: 3d1f7c51
/model.20/m.0/cv2/conv/Conv_output_0: 3d02a007
/model.21/cv3.1/cv3.1.1/cv3.1.1.0/act/Mul_output_0: 3e402428
/model.20/m.0/cv1/act/Sigmoid_output_0: 3bf92fac
/model.20/m.0/cv2/act/Sigmoid_output_0: 3bfd9909
/model.21/cv3.1/cv3.1.1/cv3.1.1.1/conv/Conv_output_0: 3e8bc9a6
/model.20/m.0/cv1/act/Mul_output_0: 3cd01452
/model.20/m.0/cv2/act/Mul_output_0: 3d006371
/model.21/cv3.1/cv3.1.1/cv3.1.1.1/act/Sigmoid_output_0: 3c010204
/model.20/m.0/m/m.0/cv1/conv/Conv_output_0: 3d655514
/model.21/cv3.1/cv3.1.1/cv3.1.1.1/act/Mul_output_0: 3e8bc9a6
/model.20/m.0/m/m.0/cv1/act/Sigmoid_output_0: 3c00b74d
/model.21/cv3.1/cv3.1.2/Conv_output_0: 3e7d604b
/model.20/m.0/m/m.0/cv1/act/Mul_output_0: 3d43f174
/model.21/Concat_1_output_0: 3e7d604b
/model.20/m.0/m/m.0/cv2/conv/Conv_output_0: 3d7d0dce
/model.21/Reshape_1_output_0: 3e7d604b
/model.20/m.0/m/m.0/cv2/act/Sigmoid_output_0: 3c00f519
/model.20/m.0/m/m.0/cv2/act/Mul_output_0: 3d7cf477
/model.20/m.0/m/m.0/Add_output_0: 3d7dc819
/model.20/m.0/m/m.1/cv1/conv/Conv_output_0: 3d847fe6
/model.20/m.0/m/m.1/cv1/act/Sigmoid_output_0: 3c00f910
/model.20/m.0/m/m.1/cv1/act/Mul_output_0: 3d8476b3
/model.20/m.0/m/m.1/cv2/conv/Conv_output_0: 3db68df8
/model.20/m.0/m/m.1/cv2/act/Sigmoid_output_0: 3c01019d
/model.20/m.0/m/m.1/cv2/act/Mul_output_0: 3db68d67
/model.20/m.0/m/m.1/Add_output_0: 3db0b236
/model.20/m.0/Concat_output_0: 3db0b236
/model.20/m.0/cv3/conv/Conv_output_0: 3d8f24eb
/model.20/m.0/cv3/act/Sigmoid_output_0: 3c00f949
/model.20/m.0/cv3/act/Mul_output_0: 3d84df74
/model.20/Concat_output_0: 3d84df74
/model.20/cv2/conv/Conv_output_0: 3d965622
/model.20/cv2/act/Sigmoid_output_0: 3c00fc75
/model.20/cv2/act/Mul_output_0: 3d8c0251
/model.21/cv2.2/cv2.2.0/conv/Conv_output_0: 3da0d093
/model.21/cv3.2/cv3.2.0/cv3.2.0.0/conv/Conv_output_0: 3dd992e5
/model.21/cv2.2/cv2.2.0/act/Sigmoid_output_0: 3c010057
/model.21/cv3.2/cv3.2.0/cv3.2.0.0/act/Sigmoid_output_0: 3c0101ca
/model.21/cv2.2/cv2.2.0/act/Mul_output_0: 3d9f5ec3
/model.21/cv3.2/cv3.2.0/cv3.2.0.0/act/Mul_output_0: 3dbfa5b7
/model.21/cv2.2/cv2.2.1/conv/Conv_output_0: 3eb1402a
/model.21/cv3.2/cv3.2.0/cv3.2.0.1/conv/Conv_output_0: 3e24c382
/model.21/cv2.2/cv2.2.1/act/Sigmoid_output_0: 3c010204
/model.21/cv3.2/cv3.2.0/cv3.2.0.1/act/Sigmoid_output_0: 3c00f2e0
/model.21/cv2.2/cv2.2.1/act/Mul_output_0: 3eb1402a
/model.21/cv3.2/cv3.2.0/cv3.2.0.1/act/Mul_output_0: 3d77cfb7
/model.21/cv2.2/cv2.2.2/Conv_output_0: 3da9cc12
/model.21/cv3.2/cv3.2.1/cv3.2.1.0/conv/Conv_output_0: 3e224a10
/model.21/cv3.2/cv3.2.1/cv3.2.1.0/act/Sigmoid_output_0: 3c010204
/model.21/cv3.2/cv3.2.1/cv3.2.1.0/act/Mul_output_0: 3e224a10
/model.21/cv3.2/cv3.2.1/cv3.2.1.1/conv/Conv_output_0: 3e488b59
/model.21/cv3.2/cv3.2.1/cv3.2.1.1/act/Sigmoid_output_0: 3c010204
/model.21/cv3.2/cv3.2.1/cv3.2.1.1/act/Mul_output_0: 3e488b59
/model.21/cv3.2/cv3.2.2/Conv_output_0: 3e4ce7e3
/model.21/Concat_2_output_0: 3e4ce7e3
/model.21/Reshape_2_output_0: 3e4ce7e3
/model.21/Concat_3_output_0: 3e7d604b
/model.21/Split_output_0: 3debda13
/model.21/Split_output_1: 3e7d604b
/model.21/dfl/Reshape_output_0: 3debda13
/model.21/Sigmoid_output_0: 3bf6e6ad
/model.21/dfl/Transpose_output_0: 3debda13
/model.21/dfl/Softmax_output: 3bf6eecf
/model.21/dfl/Softmax_output_0: 3bf6eecf
/model.21/dfl/conv/Conv_output_0: 3dd0d655
/model.21/dfl/Reshape_1_output_0: 3dd0d655
ONNXTRT_Broadcast_176_output: 3e810204
ONNXTRT_Broadcast_174_output: 3c810204
/model.21/Slice_output_0: 3dce21f8
/model.21/Add_2_output_0: 3fa07948
/model.21/Sub_1_output_0: 3e36a9cb
/model.21/Sub_output_0: 3f1fc420
/model.21/Constant_10_output_0_output: 3f204081
/model.21/Div_1_output_0: 3f207948
/model.21/Constant_11_output_0_output: 3c810204
/model.21/Mul_2_output_0: 40a5e21a
/model.21/Constant_12_output_0_output: 3e810204
/model.21/Add_1_output_0: 3f28888a
output0: 40a5e21a
/model.21/Concat_4_output_0: 3f207948
/model.21/Slice_1_output_0: 3dd0d655
/model.21/Constant_9_output_0_output: 3f204081
