TRT-101200-MinMaxCalibration
images: 3c010204
/model.0/conv/Conv_output_0: 3f45e717
/model.0/act/Sigmoid_output_0: 3c010204
/model.0/act/Mul_output_0: 3e2daf8d
/model.1/conv/Conv_output_0: 3f35f99f
/model.1/act/Sigmoid_output_0: 3c010204
/model.1/act/Mul_output_0: 3f2abdda
/model.2/cv1/conv/Conv_output_0: 3f26677f
/model.2/cv1/act/Sigmoid_output_0: 3c010204
/model.2/cv1/act/Mul_output_0: 3e9c33bf
/model.2/Split_output_0: 3e9c33bf
/model.2/Split_output_1: 3e305ad2
/model.2/m.0/cv1/conv/Conv_output_0: 3ecf066a
/model.2/m.0/cv1/act/Sigmoid_output_0: 3c010204
/model.2/m.0/cv1/act/Mul_output_0: 3e44651d
/model.2/m.0/cv2/conv/Conv_output_0: 3ebc5570
/model.2/m.0/cv2/act/Sigmoid_output_0: 3c010204
/model.2/m.0/cv2/act/Mul_output_0: 3ea8566b
/model.2/m.0/Add_output_0: 3eb96eb8
/model.2/Concat_output_0: 3eb96eb8
/model.2/cv2/conv/Conv_output_0: 3ee8ba45
/model.2/cv2/act/Sigmoid_output_0: 3c010204
/model.2/cv2/act/Mul_output_0: 3e4b035b
/model.3/conv/Conv_output_0: 3e36e76f
/model.3/act/Sigmoid_output_0: 3c010201
/model.3/act/Mul_output_0: 3defe989
/model.4/cv1/conv/Conv_output_0: 3eeb346c
/model.4/cv1/act/Sigmoid_output_0: 3c010204
/model.4/cv1/act/Mul_output_0: 3e5f7106
/model.4/Split_output_0: 3e5f7106
/model.4/Split_output_1: 3dfce71d
/model.4/m.0/cv1/conv/Conv_output_0: 3e740a68
/model.4/m.0/cv1/act/Sigmoid_output_0: 3c010204
/model.4/m.0/cv1/act/Mul_output_0: 3e3355ee
/model.4/m.0/cv2/conv/Conv_output_0: 3e573b02
/model.4/m.0/cv2/act/Sigmoid_output_0: 3c010204
/model.4/m.0/cv2/act/Mul_output_0: 3e1b20f6
/model.4/m.0/Add_output_0: 3e1ad2eb
/model.4/m.1/cv1/conv/Conv_output_0: 3e4b771c
/model.4/m.1/cv1/act/Sigmoid_output_0: 3c010032
/model.4/m.1/cv1/act/Mul_output_0: 3d9e0633
/model.4/m.1/cv2/conv/Conv_output_0: 3eee4a09
/model.4/m.1/cv2/act/Sigmoid_output_0: 3c010204
/model.4/m.1/cv2/act/Mul_output_0: 3eb98aad
/model.4/m.1/Add_output_0: 3ecb3de9
/model.4/Concat_output_0: 3ecb3de9
/model.4/cv2/conv/Conv_output_0: 3e68e57b
/model.4/cv2/act/Sigmoid_output_0: 3c010204
/model.4/cv2/act/Mul_output_0: 3e1c542f
/model.5/conv/Conv_output_0: 3e830883
/model.5/act/Sigmoid_output_0: 3c010204
/model.5/act/Mul_output_0: 3e1a777b
/model.6/cv1/conv/Conv_output_0: 3e3e3b3a
/model.6/cv1/act/Sigmoid_output_0: 3c010204
/model.6/cv1/act/Mul_output_0: 3e3c58e6
/model.6/Split_output_0: 3e3c58e6
/model.6/Split_output_1: 3e016c7e
/model.6/m.0/cv1/conv/Conv_output_0: 3e475ef8
/model.6/m.0/cv1/act/Sigmoid_output_0: 3c010204
/model.6/m.0/cv1/act/Mul_output_0: 3e0b52a3
/model.6/m.0/cv2/conv/Conv_output_0: 3e815151
/model.6/m.0/cv2/act/Sigmoid_output_0: 3c010202
/model.6/m.0/cv2/act/Mul_output_0: 3df8e0ce
/model.6/m.0/Add_output_0: 3dfee152
/model.6/m.1/cv1/conv/Conv_output_0: 3e3f1c63
/model.6/m.1/cv1/act/Sigmoid_output_0: 3c0101f2
/model.6/m.1/cv1/act/Mul_output_0: 3dd2cd3f
/model.6/m.1/cv2/conv/Conv_output_0: 3f0c87b7
/model.6/m.1/cv2/act/Sigmoid_output_0: 3c010204
/model.6/m.1/cv2/act/Mul_output_0: 3f0c87b7
/model.6/m.1/Add_output_0: 3f0ce063
/model.6/Concat_output_0: 3f0ce063
/model.6/cv2/conv/Conv_output_0: 3ea4126a
/model.6/cv2/act/Sigmoid_output_0: 3c010204
/model.6/cv2/act/Mul_output_0: 3ea4126a
/model.7/conv/Conv_output_0: 3e78f465
/model.7/act/Sigmoid_output_0: 3c010204
/model.7/act/Mul_output_0: 3e072838
/model.8/cv1/conv/Conv_output_0: 3e6412c2
/model.8/cv1/act/Sigmoid_output_0: 3c010204
/model.8/cv1/act/Mul_output_0: 3e5d4120
/model.8/Split_output_0: 3dea327f
/model.8/Split_output_1: 3e5d4120
/model.8/m.0/cv1/conv/Conv_output_0: 3e84b26f
/model.8/m.0/cv1/act/Sigmoid_output_0: 3c010204
/model.8/m.0/cv1/act/Mul_output_0: 3e28b5cf
/model.8/m.0/cv2/conv/Conv_output_0: 3eb454aa
/model.8/m.0/cv2/act/Sigmoid_output_0: 3c010204
/model.8/m.0/cv2/act/Mul_output_0: 3e125b4f
/model.8/m.0/Add_output_0: 3e5d4090
/model.8/Concat_output_0: 3e5d4120
/model.8/cv2/conv/Conv_output_0: 3e57fb24
/model.8/cv2/act/Sigmoid_output_0: 3c010204
/model.8/cv2/act/Mul_output_0: 3e0a47e7
/model.9/conv/conv/Conv_output_0: 3f8c7ee6
/model.9/conv/act/Sigmoid_output_0: 3c010204
/model.9/conv/act/Mul_output_0: 3f8c7ee6
/model.9/pool/GlobalAveragePool_output_0: 3d9cfd5a
/model.9/Flatten_output_0: 3d9cfd5a
model.9.linear.weight_output: 3c3e5cb9
/model.9/linear/Gemm_output: 3e56c0d4
model.9.linear.bias_output: 3c8e9d3a
ONNXTRT_Broadcast_output: 3c8e9d3a
/model.9/linear/Gemm_output_0: 3e4ddf10
/model.9/Softmax_output: 3c00fa59
output0: 3c00fa59
