TRT-101200-MinMaxCalibration
images: 3c010204
/model.0/conv/Conv_output_0: 3f291c07
/model.0/act/Sigmoid_output_0: 3c010204
/model.0/act/Mul_output_0: 3f291c07
/model.1/conv/Conv_output_0: 3f383166
/model.1/act/Sigmoid_output_0: 3c010204
/model.1/act/Mul_output_0: 3f22f4e8
/model.2/cv1/conv/Conv_output_0: 3f152175
/model.2/cv1/act/Sigmoid_output_0: 3c010204
/model.2/cv1/act/Mul_output_0: 3e2d4212
/model.2/Split_output_0: 3e2d4212
/model.2/Split_output_1: 3da3f049
/model.2/m.0/cv1/conv/Conv_output_0: 3e5f6837
/model.2/m.0/cv1/act/Sigmoid_output_0: 3c010204
/model.2/m.0/cv1/act/Mul_output_0: 3e4b5059
/model.2/m.0/cv2/conv/Conv_output_0: 3e7e6245
/model.2/m.0/cv2/act/Sigmoid_output_0: 3c010204
/model.2/m.0/cv2/act/Mul_output_0: 3e0ff3a6
/model.2/m.0/Add_output_0: 3e315d74
/model.2/Concat_output_0: 3e315d74
/model.2/cv2/conv/Conv_output_0: 3e1564d6
/model.2/cv2/act/Sigmoid_output_0: 3c0100b7
/model.2/cv2/act/Mul_output_0: 3da3a1e9
/model.3/conv/Conv_output_0: 3dac0975
/model.3/act/Sigmoid_output_0: 3c00bb18
/model.3/act/Mul_output_0: 3d45a4b1
/model.4/cv1/conv/Conv_output_0: 3dafd974
/model.4/cv1/act/Sigmoid_output_0: 3c00cf62
/model.4/cv1/act/Mul_output_0: 3d50a314
/model.4/Split_output_0: 3d50a314
/model.4/Split_output_1: 3cf23506
/model.4/m.0/cv1/conv/Conv_output_0: 3d86a697
/model.4/m.0/cv1/act/Sigmoid_output_0: 3c003f03
/model.4/m.0/cv1/act/Mul_output_0: 3d2459bb
/model.4/m.0/cv2/conv/Conv_output_0: 3d972a73
/model.4/m.0/cv2/act/Sigmoid_output_0: 3c0067c1
/model.4/m.0/cv2/act/Mul_output_0: 3d2c1e5c
/model.4/m.0/Add_output_0: 3d3ca4ec
/model.4/m.1/cv1/conv/Conv_output_0: 3d7ba42c
/model.4/m.1/cv1/act/Sigmoid_output_0: 3bfef47d
/model.4/m.1/cv1/act/Mul_output_0: 3d0cf013
/model.4/m.1/cv2/conv/Conv_output_0: 3dc4c64a
/model.4/m.1/cv2/act/Sigmoid_output_0: 3c00fa6d
/model.4/m.1/cv2/act/Mul_output_0: 3d871d3a
/model.4/m.1/Add_output_0: 3d9c44cd
/model.4/Concat_output_0: 3d9c44cd
/model.4/cv2/conv/Conv_output_0: 3da8c7a6
/model.4/cv2/act/Sigmoid_output_0: 3c00f4eb
/model.4/cv2/act/Mul_output_0: 3d7c82ad
/model.5/conv/Conv_output_0: 3d90b1fb
/model.5/act/Sigmoid_output_0: 3c00eaff
/model.5/act/Mul_output_0: 3d6a3e76
/model.6/cv1/conv/Conv_output_0: 3d896b10
/model.6/cv1/act/Sigmoid_output_0: 3c00ea92
/model.6/cv1/act/Mul_output_0: 3d69a6c7
/model.6/Split_output_0: 3d58d9db
/model.6/Split_output_1: 3d69a6c7
/model.6/m.0/cv1/conv/Conv_output_0: 3d997d5b
/model.6/m.0/cv1/act/Sigmoid_output_0: 3c007549
/model.6/m.0/cv1/act/Mul_output_0: 3d2f25c6
/model.6/m.0/cv2/conv/Conv_output_0: 3d5de204
/model.6/m.0/cv2/act/Sigmoid_output_0: 3c00dccd
/model.6/m.0/cv2/act/Mul_output_0: 3d5aa78e
/model.6/m.0/Add_output_0: 3d621dd7
/model.6/m.1/cv1/conv/Conv_output_0: 3d67b45c
/model.6/m.1/cv1/act/Sigmoid_output_0: 3c00c564
/model.6/m.1/cv1/act/Mul_output_0: 3d4ac4d8
/model.6/m.1/cv2/conv/Conv_output_0: 3da93a33
/model.6/m.1/cv2/act/Sigmoid_output_0: 3c00fe75
/model.6/m.1/cv2/act/Mul_output_0: 3d9357e6
/model.6/m.1/Add_output_0: 3da0e4c4
/model.6/Concat_output_0: 3da0e4c4
/model.6/cv2/conv/Conv_output_0: 3d5c40e7
/model.6/cv2/act/Sigmoid_output_0: 3c00de53
/model.6/cv2/act/Mul_output_0: 3d5c03f8
/model.7/conv/Conv_output_0: 3d79310c
/model.7/act/Sigmoid_output_0: 3c00cd5c
/model.7/act/Mul_output_0: 3d4f5bb1
/model.8/cv1/conv/Conv_output_0: 3d86c80c
/model.8/cv1/act/Sigmoid_output_0: 3c00f8b7
/model.8/cv1/act/Mul_output_0: 3d83d83f
/model.8/Split_output_0: 3d83d83f
/model.8/Split_output_1: 3d5a7638
/model.8/m.0/cv1/conv/Conv_output_0: 3da35942
/model.8/m.0/cv1/act/Sigmoid_output_0: 3c0100b1
/model.8/m.0/cv1/act/Mul_output_0: 3da35795
/model.8/m.0/cv2/conv/Conv_output_0: 3d986b1a
/model.8/m.0/cv2/act/Sigmoid_output_0: 3c00ff6c
/model.8/m.0/cv2/act/Mul_output_0: 3d986809
/model.8/m.0/Add_output_0: 3d9773b1
/model.8/Concat_output_0: 3d9773b1
/model.8/cv2/conv/Conv_output_0: 3d959b2a
/model.8/cv2/act/Sigmoid_output_0: 3c00fd50
/model.8/cv2/act/Mul_output_0: 3d8eb8fe
/model.9/cv1/conv/Conv_output_0: 3d65f32a
/model.9/cv1/act/Sigmoid_output_0: 3c00e796
/model.9/cv1/act/Mul_output_0: 3d65c40e
/model.9/m/MaxPool_output_0: 3d65c40e
/model.9/m_1/MaxPool_output_0: 3d65c40e
/model.9/m_2/MaxPool_output_0: 3d65c40e
/model.9/Concat_output_0: 3d65c40e
/model.9/cv2/conv/Conv_output_0: 3d6290e9
/model.9/cv2/act/Sigmoid_output_0: 3c00b72b
/model.9/cv2/act/Mul_output_0: 3d43e2d3
/model.10/Resize_output_0: 3d43e2d3
/model.11/Concat_output_0: 3d5c03f8
/model.12/cv1/conv/Conv_output_0: 3d809b09
/model.12/cv1/act/Sigmoid_output_0: 3c00830e
/model.12/cv1/act/Mul_output_0: 3d328c30
/model.12/Split_output_0: 3d2d31a3
/model.12/Split_output_1: 3d328c30
/model.12/m.0/cv1/conv/Conv_output_0: 3d85809d
/model.12/m.0/cv1/act/Sigmoid_output_0: 3c004165
/model.12/m.0/cv1/act/Mul_output_0: 3d24c235
/model.12/m.0/cv2/conv/Conv_output_0: 3d7c03f2
/model.12/m.0/cv2/act/Sigmoid_output_0: 3c00f448
/model.12/m.0/cv2/act/Mul_output_0: 3d7af8ec
/model.12/Concat_output_0: 3d7af8ec
/model.12/cv2/conv/Conv_output_0: 3d901f01
/model.12/cv2/act/Sigmoid_output_0: 3c007c25
/model.12/cv2/act/Mul_output_0: 3d30cc05
/model.13/Resize_output_0: 3d30cc05
/model.14/Concat_output_0: 3d7c82ad
/model.15/cv1/conv/Conv_output_0: 3d6c1445
/model.15/cv1/act/Sigmoid_output_0: 3c00ec28
/model.15/cv1/act/Mul_output_0: 3d6bec44
/model.15/Split_output_0: 3d6bec44
/model.15/Split_output_1: 3ce8c948
/model.15/m.0/cv1/conv/Conv_output_0: 3d2fdd31
/model.15/m.0/cv1/act/Sigmoid_output_0: 3c0030eb
/model.15/m.0/cv1/act/Mul_output_0: 3d220847
/model.15/m.0/cv2/conv/Conv_output_0: 3d853c34
/model.15/m.0/cv2/act/Sigmoid_output_0: 3c00762b
/model.15/m.0/cv2/act/Mul_output_0: 3d2f5b4f
/model.15/Concat_output_0: 3d6bec44
/model.15/cv2/conv/Conv_output_0: 3d8eb90a
/model.15/cv2/act/Sigmoid_output_0: 3c0010ad
/model.15/cv2/act/Mul_output_0: 3d1d3f13
/model.16/conv/Conv_output_0: 3d66c908
/model.22/cv2.0/cv2.0.0/conv/Conv_output_0: 3e000572
/model.22/cv3.0/cv3.0.0/conv/Conv_output_0: 3db4739b
/model.16/act/Sigmoid_output_0: 3c00e844
/model.22/cv2.0/cv2.0.0/act/Sigmoid_output_0: 3c00f867
/model.22/cv3.0/cv3.0.0/act/Sigmoid_output_0: 3c00b85e
/model.16/act/Mul_output_0: 3d669af7
/model.22/cv2.0/cv2.0.0/act/Mul_output_0: 3d834bd1
/model.22/cv3.0/cv3.0.0/act/Mul_output_0: 3d446964
/model.17/Concat_output_0: 3d669af7
/model.22/cv2.0/cv2.0.1/conv/Conv_output_0: 3e83cefc
/model.22/cv3.0/cv3.0.1/conv/Conv_output_0: 3ec2ac88
/model.18/cv1/conv/Conv_output_0: 3da11c2e
/model.22/cv2.0/cv2.0.1/act/Sigmoid_output_0: 3c010204
/model.22/cv3.0/cv3.0.1/act/Sigmoid_output_0: 3c010204
/model.18/cv1/act/Sigmoid_output_0: 3c01007e
/model.22/cv2.0/cv2.0.1/act/Mul_output_0: 3e83cefc
/model.22/cv3.0/cv3.0.1/act/Mul_output_0: 3e809587
/model.18/cv1/act/Mul_output_0: 3da11a48
/model.22/cv2.0/cv2.0.2/Conv_output_0: 3e04c21a
/model.22/cv3.0/cv3.0.2/Conv_output_0: 3e37515c
/model.18/Split_output_0: 3d60a26d
/model.18/Split_output_1: 3da11a48
/model.22/Concat_output_0: 3e37515c
/model.18/m.0/cv1/conv/Conv_output_0: 3d6b7b63
/model.22/Reshape_output_0: 3e37515c
/model.18/m.0/cv1/act/Sigmoid_output_0: 3c00eba6
/model.18/m.0/cv1/act/Mul_output_0: 3d6b2e20
/model.18/m.0/cv2/conv/Conv_output_0: 3dbe873d
/model.18/m.0/cv2/act/Sigmoid_output_0: 3c00f44c
/model.18/m.0/cv2/act/Mul_output_0: 3d7b0104
/model.18/Concat_output_0: 3da11a48
/model.18/cv2/conv/Conv_output_0: 3e19d6cb
/model.18/cv2/act/Sigmoid_output_0: 3c00d025
/model.18/cv2/act/Mul_output_0: 3d512269
/model.19/conv/Conv_output_0: 3d8a6222
/model.22/cv2.1/cv2.1.0/conv/Conv_output_0: 3dcbb4e6
/model.22/cv3.1/cv3.1.0/conv/Conv_output_0: 3db3bbae
/model.19/act/Sigmoid_output_0: 3c007c88
/model.22/cv2.1/cv2.1.0/act/Sigmoid_output_0: 3c00ebb2
/model.22/cv3.1/cv3.1.0/act/Sigmoid_output_0: 3c00f8a2
/model.19/act/Mul_output_0: 3d30e490
/model.22/cv2.1/cv2.1.0/act/Mul_output_0: 3d6b3f23
/model.22/cv3.1/cv3.1.0/act/Mul_output_0: 3d83b361
/model.20/Concat_output_0: 3d43e2d3
/model.22/cv2.1/cv2.1.1/conv/Conv_output_0: 3e7482f6
/model.22/cv3.1/cv3.1.1/conv/Conv_output_0: 3ebbe383
/model.21/cv1/conv/Conv_output_0: 3d90611d
/model.22/cv2.1/cv2.1.1/act/Sigmoid_output_0: 3c010204
/model.22/cv3.1/cv3.1.1/act/Sigmoid_output_0: 3c010204
/model.21/cv1/act/Sigmoid_output_0: 3c00fdbc
/model.22/cv2.1/cv2.1.1/act/Mul_output_0: 3e7482f6
/model.22/cv3.1/cv3.1.1/act/Mul_output_0: 3ebbe383
/model.21/cv1/act/Mul_output_0: 3d905c53
/model.22/cv2.1/cv2.1.2/Conv_output_0: 3dd0d722
/model.22/cv3.1/cv3.1.2/Conv_output_0: 3e83f8af
/model.21/Split_output_0: 3d905c53
/model.21/Split_output_1: 3d313180
/model.22/Concat_1_output_0: 3e83f8af
/model.21/m.0/cv1/conv/Conv_output_0: 3d819571
/model.22/Reshape_1_output_0: 3e83f8af
/model.21/m.0/cv1/act/Sigmoid_output_0: 3c00e610
/model.21/m.0/cv1/act/Mul_output_0: 3d63f358
/model.21/m.0/cv2/conv/Conv_output_0: 3db298e8
/model.21/m.0/cv2/act/Sigmoid_output_0: 3c0100cb
/model.21/m.0/cv2/act/Mul_output_0: 3da4a42c
/model.21/Concat_output_0: 3da4a42c
/model.21/cv2/conv/Conv_output_0: 3e01cc57
/model.21/cv2/act/Sigmoid_output_0: 3c00f7e4
/model.21/cv2/act/Mul_output_0: 3d826e4b
/model.22/cv2.2/cv2.2.0/conv/Conv_output_0: 3dc68fb2
/model.22/cv3.2/cv3.2.0/conv/Conv_output_0: 3dc09071
/model.22/cv2.2/cv2.2.0/act/Sigmoid_output_0: 3c010118
/model.22/cv3.2/cv3.2.0/act/Sigmoid_output_0: 3c0101ab
/model.22/cv2.2/cv2.2.0/act/Mul_output_0: 3da915cf
/model.22/cv3.2/cv3.2.0/act/Mul_output_0: 3db8d8c5
/model.22/cv2.2/cv2.2.1/conv/Conv_output_0: 3ec5aace
/model.22/cv3.2/cv3.2.1/conv/Conv_output_0: 3ed1c8fe
/model.22/cv2.2/cv2.2.1/act/Sigmoid_output_0: 3c010204
/model.22/cv3.2/cv3.2.1/act/Sigmoid_output_0: 3c010204
/model.22/cv2.2/cv2.2.1/act/Mul_output_0: 3ec5aace
/model.22/cv3.2/cv3.2.1/act/Mul_output_0: 3ed1c8fe
/model.22/cv2.2/cv2.2.2/Conv_output_0: 3db86b9e
/model.22/cv3.2/cv3.2.2/Conv_output_0: 3eafca0f
/model.22/Concat_2_output_0: 3eafca0f
/model.22/Reshape_2_output_0: 3eafca0f
/model.22/Concat_3_output_0: 3eafca0f
/model.22/Split_output_0: 3e04c21a
/model.22/Split_output_1: 3eafca0f
/model.22/dfl/Reshape_output_0: 3e04c21a
/model.22/Sigmoid_output_0: 3be52ff2
/model.22/dfl/Transpose_output_0: 3e04c21a
/model.22/dfl/Softmax_output: 3bfd922a
/model.22/dfl/Softmax_output_0: 3bfd922a
/model.22/dfl/conv/Conv_output_0: 3de1cbe9
/model.22/dfl/Reshape_1_output_0: 3de1cbe9
/model.22/Concat_4_output_0: 3f208b45
/model.22/Sub_output_0: 3f1fe32b
/model.22/Constant_11_output_0_output: 3c810204
/model.22/Slice_output_0: 3ddddf12
ONNXTRT_Broadcast_95_output: 3e810204
/model.22/Add_1_output_0: 3f224fe0
/model.22/Constant_10_output_0_output: 3f204081
/model.22/Sub_1_output_0: 3e363f89
/model.22/Constant_9_output_0_output: 3f204081
/model.22/Constant_12_output_0_output: 3e810204
/model.22/Div_1_output_0: 3f208b45
/model.22/Slice_1_output_0: 3de1cbe9
output0: 40a4bccb
/model.22/Add_2_output_0: 3fa08b45
/model.22/Mul_2_output_0: 40a4bccb
ONNXTRT_Broadcast_output: 3c810204
