TRT-101200-MinMaxCalibration
images: 3c010204
/model.0/conv/Conv_output_0: 3ee1ac41
/model.0/act/Sigmoid_output_0: 3c010204
/model.0/act/Mul_output_0: 3ec00b34
/model.1/conv/Conv_output_0: 3f1a549c
/model.1/act/Sigmoid_output_0: 3c010204
/model.1/act/Mul_output_0: 3f184cce
/model.2/cv1/conv/Conv_output_0: 3ef11e3b
/model.2/cv1/act/Sigmoid_output_0: 3c010204
/model.2/cv1/act/Mul_output_0: 3e2ba02d
/model.2/Split_output_0: 3e2ba02d
/model.2/Split_output_1: 3d9b4d36
/model.2/m.0/cv1/conv/Conv_output_0: 3e2e15e1
/model.2/m.0/cv1/act/Sigmoid_output_0: 3c010200
/model.2/m.0/cv1/act/Mul_output_0: 3de9be6f
/model.2/m.0/cv2/conv/Conv_output_0: 3e50f606
/model.2/m.0/cv2/act/Sigmoid_output_0: 3c010204
/model.2/m.0/cv2/act/Mul_output_0: 3e0b499f
/model.2/m.0/Add_output_0: 3e1b2c99
/model.2/Concat_output_0: 3e2ba02d
/model.2/cv2/conv/Conv_output_0: 3e3f7fe4
/model.2/cv2/act/Sigmoid_output_0: 3c01018b
/model.2/cv2/act/Mul_output_0: 3db3faa8
/model.3/conv/Conv_output_0: 3d8a194a
/model.3/act/Sigmoid_output_0: 3c00448e
/model.3/act/Mul_output_0: 3d254e99
/model.4/cv1/conv/Conv_output_0: 3dbfc8f3
/model.4/cv1/act/Sigmoid_output_0: 3c01010b
/model.4/cv1/act/Mul_output_0: 3da84241
/model.4/Split_output_0: 3da84241
/model.4/Split_output_1: 3d180c31
/model.4/m.0/cv1/conv/Conv_output_0: 3d7c6c25
/model.4/m.0/cv1/act/Sigmoid_output_0: 3c00f2fb
/model.4/m.0/cv1/act/Mul_output_0: 3d780a4a
/model.4/m.0/cv2/conv/Conv_output_0: 3d9ca384
/model.4/m.0/cv2/act/Sigmoid_output_0: 3c002b96
/model.4/m.0/cv2/act/Mul_output_0: 3d213165
/model.4/m.0/Add_output_0: 3d38ddf2
/model.4/m.1/cv1/conv/Conv_output_0: 3d79d873
/model.4/m.1/cv1/act/Sigmoid_output_0: 3c00c8ab
/model.4/m.1/cv1/act/Mul_output_0: 3d4c94dd
/model.4/m.1/cv2/conv/Conv_output_0: 3e2916ce
/model.4/m.1/cv2/act/Sigmoid_output_0: 3c010204
/model.4/m.1/cv2/act/Mul_output_0: 3e2916ce
/model.4/m.1/Add_output_0: 3e389951
/model.4/Concat_output_0: 3e389951
/model.4/cv2/conv/Conv_output_0: 3d8d2356
/model.4/cv2/act/Sigmoid_output_0: 3c00fcd5
/model.4/cv2/act/Mul_output_0: 3d8d1da9
/model.5/conv/Conv_output_0: 3dab7c43
/model.5/act/Sigmoid_output_0: 3c0100e7
/model.5/act/Mul_output_0: 3da62864
/model.6/cv1/conv/Conv_output_0: 3dc66e26
/model.6/cv1/act/Sigmoid_output_0: 3c0101c3
/model.6/cv1/act/Mul_output_0: 3dbdc48b
/model.6/Split_output_0: 3dbdc48b
/model.6/Split_output_1: 3d8b2dcc
/model.6/m.0/cv1/conv/Conv_output_0: 3df6020c
/model.6/m.0/cv1/act/Sigmoid_output_0: 3c010202
/model.6/m.0/cv1/act/Mul_output_0: 3df60208
/model.6/m.0/cv2/conv/Conv_output_0: 3dca6fba
/model.6/m.0/cv2/act/Sigmoid_output_0: 3c0101e6
/model.6/m.0/cv2/act/Mul_output_0: 3dca6f8c
/model.6/m.0/Add_output_0: 3e0761c9
/model.6/m.1/cv1/conv/Conv_output_0: 3e0bf1ee
/model.6/m.1/cv1/act/Sigmoid_output_0: 3c010200
/model.6/m.1/cv1/act/Mul_output_0: 3de9f2fe
/model.6/m.1/cv2/conv/Conv_output_0: 3e8b4710
/model.6/m.1/cv2/act/Sigmoid_output_0: 3c010204
/model.6/m.1/cv2/act/Mul_output_0: 3e8b4710
/model.6/m.1/Add_output_0: 3e8ccddb
/model.6/Concat_output_0: 3e8ccddb
/model.6/cv2/conv/Conv_output_0: 3e3416e0
/model.6/cv2/act/Sigmoid_output_0: 3c010204
/model.6/cv2/act/Mul_output_0: 3e3416e0
/model.7/conv/Conv_output_0: 3dd97104
/model.7/act/Sigmoid_output_0: 3c0101e9
/model.7/act/Mul_output_0: 3dcbb01f
/model.8/cv1/conv/Conv_output_0: 3d96c34b
/model.8/cv1/act/Sigmoid_output_0: 3c00ff22
/model.8/cv1/act/Mul_output_0: 3d96bfed
/model.8/Split_output_0: 3d96bfed
/model.8/Split_output_1: 3d861872
/model.8/m.0/cv1/conv/Conv_output_0: 3de02002
/model.8/m.0/cv1/act/Sigmoid_output_0: 3c0101fc
/model.8/m.0/cv1/act/Mul_output_0: 3de01ff5
/model.8/m.0/cv2/conv/Conv_output_0: 3e06dcc5
/model.8/m.0/cv2/act/Sigmoid_output_0: 3c010204
/model.8/m.0/cv2/act/Mul_output_0: 3e06dcc5
/model.8/m.0/Add_output_0: 3e04a32d
/model.8/Concat_output_0: 3e04a32d
/model.8/cv2/conv/Conv_output_0: 3dba6a4c
/model.8/cv2/act/Sigmoid_output_0: 3c0101b3
/model.8/cv2/act/Mul_output_0: 3dba69d7
/model.9/cv1/conv/Conv_output_0: 3d80d26c
/model.9/cv1/act/Sigmoid_output_0: 3c00f6d0
/model.9/cv1/act/Mul_output_0: 3d80c73c
/model.9/m/MaxPool_output_0: 3d80c73c
/model.9/m_1/MaxPool_output_0: 3d80c73c
/model.9/m_2/MaxPool_output_0: 3d80c73c
/model.9/Concat_output_0: 3d80c73c
/model.9/cv2/conv/Conv_output_0: 3d9ebe6b
/model.9/cv2/act/Sigmoid_output_0: 3c00f47c
/model.9/cv2/act/Mul_output_0: 3d7b7454
/model.10/Resize_output_0: 3d7b7454
/model.11/Concat_output_0: 3e3416e0
/model.12/cv1/conv/Conv_output_0: 3de33bcc
/model.12/cv1/act/Sigmoid_output_0: 3c0101fd
/model.12/cv1/act/Mul_output_0: 3de33bc1
/model.12/Split_output_0: 3dc18a91
/model.12/Split_output_1: 3de33bc1
/model.12/m.0/cv1/conv/Conv_output_0: 3dbeb60b
/model.12/m.0/cv1/act/Sigmoid_output_0: 3c0101c7
/model.12/m.0/cv1/act/Mul_output_0: 3dbeb5b0
/model.12/m.0/cv2/conv/Conv_output_0: 3dc77439
/model.12/m.0/cv2/act/Sigmoid_output_0: 3c0101da
/model.12/m.0/cv2/act/Mul_output_0: 3dc4ff68
/model.12/Concat_output_0: 3de33bc1
/model.12/cv2/conv/Conv_output_0: 3dbfaf85
/model.12/cv2/act/Sigmoid_output_0: 3c0100a6
/model.12/cv2/act/Mul_output_0: 3da2cd38
/model.13/Resize_output_0: 3da2cd38
/model.14/Concat_output_0: 3da2cd38
/model.15/cv1/conv/Conv_output_0: 3da921b1
/model.15/cv1/act/Sigmoid_output_0: 3c010118
/model.15/cv1/act/Mul_output_0: 3da9207c
/model.15/Split_output_0: 3da9207c
/model.15/Split_output_1: 3d56d7de
/model.15/m.0/cv1/conv/Conv_output_0: 3d9b47f7
/model.15/m.0/cv1/act/Sigmoid_output_0: 3c00fb8f
/model.15/m.0/cv1/act/Mul_output_0: 3d89a592
/model.15/m.0/cv2/conv/Conv_output_0: 3dc6277f
/model.15/m.0/cv2/act/Sigmoid_output_0: 3c0100ba
/model.15/m.0/cv2/act/Mul_output_0: 3da3cd33
/model.15/Concat_output_0: 3da9207c
/model.15/cv2/conv/Conv_output_0: 3dd29b30
/model.15/cv2/act/Sigmoid_output_0: 3c010054
/model.15/cv2/act/Mul_output_0: 3d9f4628
/model.16/conv/Conv_output_0: 3de71600
/model.22/cv4.0/cv4.0.0/conv/Conv_output_0: 3e1e1239
/model.22/cv2.0/cv2.0.0/conv/Conv_output_0: 3d94e609
/model.22/cv3.0/cv3.0.0/conv/Conv_output_0: 3d9d6a9c
/model.16/act/Sigmoid_output_0: 3c0101ff
/model.22/cv4.0/cv4.0.0/act/Sigmoid_output_0: 3c0101c8
/model.22/cv2.0/cv2.0.0/act/Sigmoid_output_0: 3c00f6cb
/model.22/cv3.0/cv3.0.0/act/Sigmoid_output_0: 3c00d698
/model.16/act/Mul_output_0: 3de715f7
/model.22/cv4.0/cv4.0.0/act/Mul_output_0: 3dbeec23
/model.22/cv2.0/cv2.0.0/act/Mul_output_0: 3d80bed9
/model.22/cv3.0/cv3.0.0/act/Mul_output_0: 3d55a37b
/model.17/Concat_output_0: 3de715f7
/model.22/cv4.0/cv4.0.1/conv/Conv_output_0: 3e04d700
/model.22/cv2.0/cv2.0.1/conv/Conv_output_0: 3eb90e14
/model.22/cv3.0/cv3.0.1/conv/Conv_output_0: 3e5e10ab
/model.18/cv1/conv/Conv_output_0: 3da698fa
/model.22/cv4.0/cv4.0.1/act/Sigmoid_output_0: 3c010204
/model.22/cv2.0/cv2.0.1/act/Sigmoid_output_0: 3c010204
/model.22/cv3.0/cv3.0.1/act/Sigmoid_output_0: 3c010204
/model.18/cv1/act/Sigmoid_output_0: 3c0100ef
/model.22/cv4.0/cv4.0.1/act/Mul_output_0: 3e030810
/model.22/cv2.0/cv2.0.1/act/Mul_output_0: 3eb90e14
/model.22/cv3.0/cv3.0.1/act/Mul_output_0: 3e5e10ab
/model.18/cv1/act/Mul_output_0: 3da69794
/model.22/cv4.0/cv4.0.2/Conv_output_0: 3d546908
/model.22/cv2.0/cv2.0.2/Conv_output_0: 3dbba46c
/model.22/cv3.0/cv3.0.2/Conv_output_0: 3e4f9752
/model.18/Split_output_0: 3d71dab9
/model.18/Split_output_1: 3da69794
/model.22/Reshape_output_0: 3d546908
/model.22/Concat_1_output_0: 3e4f9752
/model.18/m.0/cv1/conv/Conv_output_0: 3d8d9fb3
/model.22/Reshape_3_output_0: 3e4f9752
/model.18/m.0/cv1/act/Sigmoid_output_0: 3c00f50b
/model.18/m.0/cv1/act/Mul_output_0: 3d7cd17c
/model.18/m.0/cv2/conv/Conv_output_0: 3dca4f39
/model.18/m.0/cv2/act/Sigmoid_output_0: 3c0101d0
/model.18/m.0/cv2/act/Mul_output_0: 3dc17005
/model.18/Concat_output_0: 3dc17005
/model.18/cv2/conv/Conv_output_0: 3dd1c8b9
/model.18/cv2/act/Sigmoid_output_0: 3c00fd13
/model.18/cv2/act/Mul_output_0: 3d8de6d7
/model.19/conv/Conv_output_0: 3db7a022
/model.22/cv4.1/cv4.1.0/conv/Conv_output_0: 3dc2f329
/model.22/cv2.1/cv2.1.0/conv/Conv_output_0: 3daa1e8d
/model.22/cv3.1/cv3.1.0/conv/Conv_output_0: 3dd6f825
/model.19/act/Sigmoid_output_0: 3c010074
/model.22/cv4.1/cv4.1.0/act/Sigmoid_output_0: 3c0101ac
/model.22/cv2.1/cv2.1.0/act/Sigmoid_output_0: 3c00ff65
/model.22/cv3.1/cv3.1.0/act/Sigmoid_output_0: 3c00eaf6
/model.19/act/Mul_output_0: 3da0a951
/model.22/cv4.1/cv4.1.0/act/Mul_output_0: 3db91f68
/model.22/cv2.1/cv2.1.0/act/Mul_output_0: 3d983f0a
/model.22/cv3.1/cv3.1.0/act/Mul_output_0: 3d6a3216
/model.20/Concat_output_0: 3da0a951
/model.22/cv4.1/cv4.1.1/conv/Conv_output_0: 3db448e6
/model.22/cv2.1/cv2.1.1/conv/Conv_output_0: 3eaf9880
/model.22/cv3.1/cv3.1.1/conv/Conv_output_0: 3eaaf3eb
/model.21/cv1/conv/Conv_output_0: 3da878b1
/model.22/cv4.1/cv4.1.1/act/Sigmoid_output_0: 3c01018d
/model.22/cv2.1/cv2.1.1/act/Sigmoid_output_0: 3c010204
/model.22/cv3.1/cv3.1.1/act/Sigmoid_output_0: 3c010204
/model.21/cv1/act/Sigmoid_output_0: 3c01010e
/model.22/cv4.1/cv4.1.1/act/Mul_output_0: 3db4483f
/model.22/cv2.1/cv2.1.1/act/Mul_output_0: 3eaf9880
/model.22/cv3.1/cv3.1.1/act/Mul_output_0: 3e8cb594
/model.21/cv1/act/Mul_output_0: 3da87770
/model.22/cv4.1/cv4.1.2/Conv_output_0: 3d7c83f8
/model.22/cv2.1/cv2.1.2/Conv_output_0: 3dbc9273
/model.22/cv3.1/cv3.1.2/Conv_output_0: 3e735f61
/model.21/Split_output_0: 3d8a7ebd
/model.21/Split_output_1: 3da87770
/model.22/Reshape_1_output_0: 3d7c83f8
/model.22/Concat_2_output_0: 3e735f61
/model.21/m.0/cv1/conv/Conv_output_0: 3d90e35b
/model.22/Reshape_4_output_0: 3e735f61
/model.21/m.0/cv1/act/Sigmoid_output_0: 3c00f2d6
/model.21/m.0/cv1/act/Mul_output_0: 3d77bac3
/model.21/m.0/cv2/conv/Conv_output_0: 3de32042
/model.21/m.0/cv2/act/Sigmoid_output_0: 3c0101fd
/model.21/m.0/cv2/act/Mul_output_0: 3de32036
/model.21/Concat_output_0: 3de32036
/model.21/cv2/conv/Conv_output_0: 3e183201
/model.21/cv2/act/Sigmoid_output_0: 3c01019a
/model.21/cv2/act/Mul_output_0: 3db61a43
/model.22/cv4.2/cv4.2.0/conv/Conv_output_0: 3d871e97
/model.22/cv2.2/cv2.2.0/conv/Conv_output_0: 3d8ca8d5
/model.22/cv3.2/cv3.2.0/conv/Conv_output_0: 3dae2720
/model.22/cv4.2/cv4.2.0/act/Sigmoid_output_0: 3c00f826
/model.22/cv2.2/cv2.2.0/act/Sigmoid_output_0: 3c00fc91
/model.22/cv3.2/cv3.2.0/act/Sigmoid_output_0: 3c00eb0e
/model.22/cv4.2/cv4.2.0/act/Mul_output_0: 3d82de02
/model.22/cv2.2/cv2.2.0/act/Mul_output_0: 3d8c530e
/model.22/cv3.2/cv3.2.0/act/Mul_output_0: 3d6a5466
/model.22/cv4.2/cv4.2.1/conv/Conv_output_0: 3da555ec
/model.22/cv2.2/cv2.2.1/conv/Conv_output_0: 3ea8aedb
/model.22/cv3.2/cv3.2.1/conv/Conv_output_0: 3e65c812
/model.22/cv4.2/cv4.2.1/act/Sigmoid_output_0: 3c0100d8
/model.22/cv2.2/cv2.2.1/act/Sigmoid_output_0: 3c010204
/model.22/cv3.2/cv3.2.1/act/Sigmoid_output_0: 3c010204
/model.22/cv4.2/cv4.2.1/act/Mul_output_0: 3da5546c
/model.22/cv2.2/cv2.2.1/act/Mul_output_0: 3ea8aedb
/model.22/cv3.2/cv3.2.1/act/Mul_output_0: 3e65c812
/model.22/cv4.2/cv4.2.2/Conv_output_0: 3d9175e0
/model.22/cv2.2/cv2.2.2/Conv_output_0: 3dcc1b1d
/model.22/cv3.2/cv3.2.2/Conv_output_0: 3e615beb
/model.22/Reshape_2_output_0: 3d9175e0
/model.22/Concat_3_output_0: 3e615beb
/model.22/Concat_output_0: 3d9175e0
/model.22/Reshape_5_output_0: 3e615beb
/model.22/Concat_4_output_0: 3e735f61
/model.22/Reshape_6_output_0: 3d9175e0
/model.22/Split_output_0: 3dcc1b1d
/model.22/Split_output_1: 3e735f61
/model.22/Constant_13_output_0_output: 3f204081
/model.22/Slice_1_output_0: 3dd2ea14
/model.22/Constant_23_output_0_output: 3f1f3e7d
/model.22/Sub_1_output_0: 3e59d924
/model.22/Mul_2_output_0: 40a2c7bf
ONNXTRT_Broadcast_172_output: 3e810204
/model.22/Slice_output_0: 3de7ce80
/model.22/dfl/Transpose_output_0: 3dcc1b1d
/model.22/Constant_14_output_0_output: 3f204081
ONNXTRT_Broadcast_170_output: 3c810204
/model.22/Add_1_output_0: 3f2c90f3
/model.22/Sub_output_0: 3f1f810d
/model.22/Div_1_output_0: 3f21c9c7
/model.22/Constant_22_output_0_output: 3c810204
/model.22/dfl/conv/Conv_output_0: 3de7ce80
/model.22/Constant_24_output_0_output: 3e810204
ONNXTRT_Broadcast_100_output: 3e810204
/model.22/dfl/Softmax_output: 3bfc17e1
/model.22/Add_2_output_0: 3fa1c9c7
/model.22/Mul_3_output_0: 3dc13f53
/model.22/Reshape_7_output_0: 40b12542
ONNXTRT_Broadcast_97_output: 3f1f3e7d
/model.22/Concat_6_output_0: 40b12542
/model.22/Sigmoid_1_output_0: 3c00d7f5
/model.22/Add_3_output_0: 3f24e29b
/model.22/Slice_3_output_0: 3d9175e0
/model.22/Slice_2_output_0: 3d413f53
/model.22/dfl/Reshape_output_0: 3dcc1b1d
/model.22/dfl/Reshape_1_output_0: 3de7ce80
/model.22/dfl/Softmax_output_0: 3bfc17e1
/model.22/Mul_4_output_0: 40b12542
output0: 40b12542
/model.22/Sigmoid_output_0: 3befba69
ONNXTRT_Broadcast_output: 3c810204
/model.22/Concat_5_output_0: 3f21c9c7
