TRT-101200-MinMaxCalibration
images: 3c010204
/model.0/conv/Conv_output_0: 3ecd7118
/model.0/act/Sigmoid_output_0: 3c010204
/model.0/act/Mul_output_0: 3ecd7118
/model.1/conv/Conv_output_0: 3e87968e
/model.1/act/Sigmoid_output_0: 3c010204
/model.1/act/Mul_output_0: 3e33ae71
/model.2/cv1/conv/Conv_output_0: 3e3fc265
/model.2/cv1/act/Sigmoid_output_0: 3c0100bd
/model.2/cv1/act/Mul_output_0: 3da3f1d6
/model.2/Split_output_0: 3da3f1d6
/model.2/Split_output_1: 3d907db2
/model.2/m.0/cv1/conv/Conv_output_0: 3e2a4b11
/model.2/m.0/cv1/act/Sigmoid_output_0: 3c00fd3c
/model.2/m.0/cv1/act/Mul_output_0: 3d8e7149
/model.2/m.0/cv2/conv/Conv_output_0: 3e0309be
/model.2/m.0/cv2/act/Sigmoid_output_0: 3c010203
/model.2/m.0/cv2/act/Mul_output_0: 3dfeac26
/model.2/m.0/Add_output_0: 3e0d5332
/model.2/Concat_output_0: 3e0d5332
/model.2/cv2/conv/Conv_output_0: 3df41edf
/model.2/cv2/act/Sigmoid_output_0: 3c0101d4
/model.2/cv2/act/Mul_output_0: 3dc2bfa5
/model.3/conv/Conv_output_0: 3d8a7fd8
/model.3/act/Sigmoid_output_0: 3c00fb75
/model.3/act/Mul_output_0: 3d8967da
/model.4/cv1/conv/Conv_output_0: 3da1db69
/model.4/cv1/act/Sigmoid_output_0: 3c010092
/model.4/cv1/act/Mul_output_0: 3da1d999
/model.4/Split_output_0: 3da1d999
/model.4/Split_output_1: 3d0c4f19
/model.4/m.0/cv1/conv/Conv_output_0: 3d375247
/model.4/m.0/cv1/act/Sigmoid_output_0: 3c007bb6
/model.4/m.0/cv1/act/Mul_output_0: 3d30b0d7
/model.4/m.0/cv2/conv/Conv_output_0: 3da88112
/model.4/m.0/cv2/act/Sigmoid_output_0: 3c00ffd2
/model.4/m.0/cv2/act/Mul_output_0: 3d9b0537
/model.4/m.0/Add_output_0: 3d9b0934
/model.4/Concat_output_0: 3da1d999
/model.4/cv2/conv/Conv_output_0: 3dc3c410
/model.4/cv2/act/Sigmoid_output_0: 3c00f8de
/model.4/cv2/act/Mul_output_0: 3d841d94
/model.5/conv/Conv_output_0: 3d774e3a
/model.5/act/Sigmoid_output_0: 3c00f295
/model.5/act/Mul_output_0: 3d7730a4
/model.6/cv1/conv/Conv_output_0: 3d7addbc
/model.6/cv1/act/Sigmoid_output_0: 3c00f188
/model.6/cv1/act/Mul_output_0: 3d751023
/model.6/Split_output_0: 3d751023
/model.6/Split_output_1: 3d6e2ba4
/model.6/m.0/cv1/conv/Conv_output_0: 3d022e51
/model.6/m.0/cv2/conv/Conv_output_0: 3d91a9fd
/model.6/m.0/cv1/act/Sigmoid_output_0: 3bfd89a4
/model.6/m.0/cv2/act/Sigmoid_output_0: 3c00fe14
/model.6/m.0/cv1/act/Mul_output_0: 3cffd7d1
/model.6/m.0/cv2/act/Mul_output_0: 3d91a58a
/model.6/m.0/m/m.0/cv1/conv/Conv_output_0: 3d556fd0
/model.6/m.0/m/m.0/cv1/act/Sigmoid_output_0: 3c00cb73
/model.6/m.0/m/m.0/cv1/act/Mul_output_0: 3d4e3274
/model.6/m.0/m/m.0/cv2/conv/Conv_output_0: 3d942878
/model.6/m.0/m/m.0/cv2/act/Sigmoid_output_0: 3c00fcc8
/model.6/m.0/m/m.0/cv2/act/Mul_output_0: 3d8cf4ef
/model.6/m.0/m/m.0/Add_output_0: 3d890574
/model.6/m.0/m/m.1/cv1/conv/Conv_output_0: 3d6a9fe7
/model.6/m.0/m/m.1/cv1/act/Sigmoid_output_0: 3c00d87f
/model.6/m.0/m/m.1/cv1/act/Mul_output_0: 3d5717d2
/model.6/m.0/m/m.1/cv2/conv/Conv_output_0: 3d9ddb0a
/model.6/m.0/m/m.1/cv2/act/Sigmoid_output_0: 3c00fdda
/model.6/m.0/m/m.1/cv2/act/Mul_output_0: 3d90dbca
/model.6/m.0/m/m.1/Add_output_0: 3db34b14
/model.6/m.0/Concat_output_0: 3db34b14
/model.6/m.0/cv3/conv/Conv_output_0: 3d9669f2
/model.6/m.0/cv3/act/Sigmoid_output_0: 3c00fcc2
/model.6/m.0/cv3/act/Mul_output_0: 3d8ce2aa
/model.6/Concat_output_0: 3d8ce2aa
/model.6/cv2/conv/Conv_output_0: 3d936c02
/model.6/cv2/act/Sigmoid_output_0: 3c00fabf
/model.6/cv2/act/Mul_output_0: 3d87cca4
/model.7/conv/Conv_output_0: 3d7b59d3
/model.7/act/Sigmoid_output_0: 3c00f466
/model.7/act/Mul_output_0: 3d7b3f4b
/model.8/cv1/conv/Conv_output_0: 3d996934
/model.8/cv1/act/Sigmoid_output_0: 3c00ff95
/model.8/cv1/act/Mul_output_0: 3d996650
/model.8/Split_output_0: 3d790eb4
/model.8/Split_output_1: 3d996650
/model.8/m.0/cv1/conv/Conv_output_0: 3d3a5e7e
/model.8/m.0/cv2/conv/Conv_output_0: 3d8c4a5f
/model.8/m.0/cv1/act/Sigmoid_output_0: 3c009c2b
/model.8/m.0/cv2/act/Sigmoid_output_0: 3c00d260
/model.8/m.0/cv1/act/Mul_output_0: 3d39cb5d
/model.8/m.0/cv2/act/Mul_output_0: 3d529f8b
/model.8/m.0/m/m.0/cv1/conv/Conv_output_0: 3d46d556
/model.8/m.0/m/m.0/cv1/act/Sigmoid_output_0: 3c000fea
/model.8/m.0/m/m.0/cv1/act/Mul_output_0: 3d1d2427
/model.8/m.0/m/m.0/cv2/conv/Conv_output_0: 3d6a6bfb
/model.8/m.0/m/m.0/cv2/act/Sigmoid_output_0: 3c00eb02
/model.8/m.0/m/m.0/cv2/act/Mul_output_0: 3d6a422b
/model.8/m.0/m/m.0/Add_output_0: 3d736f83
/model.8/m.0/m/m.1/cv1/conv/Conv_output_0: 3d47baad
/model.8/m.0/m/m.1/cv1/act/Sigmoid_output_0: 3c00bea6
/model.8/m.0/m/m.1/cv1/act/Mul_output_0: 3d475262
/model.8/m.0/m/m.1/cv2/conv/Conv_output_0: 3d7a5d59
/model.8/m.0/m/m.1/cv2/act/Sigmoid_output_0: 3c00f3fa
/model.8/m.0/m/m.1/cv2/act/Mul_output_0: 3d7a4219
/model.8/m.0/m/m.1/Add_output_0: 3d8337c6
/model.8/m.0/Concat_output_0: 3d8337c6
/model.8/m.0/cv3/conv/Conv_output_0: 3d7fc57a
/model.8/m.0/cv3/act/Sigmoid_output_0: 3c00f625
/model.8/m.0/cv3/act/Mul_output_0: 3d7fadf0
/model.8/Concat_output_0: 3d996650
/model.8/cv2/conv/Conv_output_0: 3d638171
/model.8/cv2/act/Sigmoid_output_0: 3c00e581
/model.8/cv2/act/Mul_output_0: 3d634f29
/model.9/cv1/conv/Conv_output_0: 3d59238d
/model.9/cv1/act/Sigmoid_output_0: 3c00dab6
/model.9/cv1/act/Mul_output_0: 3d58e166
/model.9/m/MaxPool_output_0: 3d58e166
/model.9/m_1/MaxPool_output_0: 3d58e166
/model.9/m_2/MaxPool_output_0: 3d58e166
/model.9/Concat_output_0: 3d58e166
/model.9/cv2/conv/Conv_output_0: 3d67234b
/model.9/cv2/act/Sigmoid_output_0: 3c00e88b
/model.9/cv2/act/Mul_output_0: 3d66f5a7
/model.10/cv1/conv/Conv_output_0: 3da918f4
/model.10/cv1/act/Sigmoid_output_0: 3c010118
/model.10/cv1/act/Mul_output_0: 3da917be
/model.10/Split_output_0: 3da917be
/model.10/Split_output_1: 3d7177f8
/model.10/m/m.0/attn/qkv/conv/Conv_output_0: 3d99c097
/model.10/m/m.0/attn/Reshape_output_0: 3d99c097
/model.10/m/m.0/attn/Split_output_0: 3d3ccb50
/model.10/m/m.0/attn/Split_output_1: 3d440606
/model.10/m/m.0/attn/Split_output_2: 3d99c097
/model.10/m/m.0/attn/Transpose_output_0: 3d3ccb50
/model.10/m/m.0/attn/Reshape_2_output_0: 3d99c097
/model.10/m/m.0/attn/MatMul_output_0: 3f8b6d89
/model.10/m/m.0/attn/pe/conv/Conv_output_0: 3d6c8961
/model.10/m/m.0/attn/Constant_1_output_0_output: 3ab671d7
ONNXTRT_Broadcast_output: 3ab671d7
/model.10/m/m.0/attn/Mul_output_0: 3e452e48
/model.10/m/m.0/attn/Softmax_output: 3b61bdc4
/model.10/m/m.0/attn/Softmax_output_0: 3b61bdc4
/model.10/m/m.0/attn/Transpose_1_output_0: 3b61bdc4
/model.10/m/m.0/attn/MatMul_1_output_0: 3d88794e
/model.10/m/m.0/attn/Reshape_1_output_0: 3d88794e
/model.10/m/m.0/attn/Add_output_0: 3d717a84
/model.10/m/m.0/attn/proj/conv/Conv_output_0: 3ce138de
/model.10/m/m.0/Add_output_0: 3d72a6ac
/model.10/m/m.0/ffn/ffn.0/conv/Conv_output_0: 3d90cb2d
/model.10/m/m.0/ffn/ffn.0/act/Sigmoid_output_0: 3c0065ae
/model.10/m/m.0/ffn/ffn.0/act/Mul_output_0: 3d2badb7
/model.10/m/m.0/ffn/ffn.1/conv/Conv_output_0: 3d0cff43
/model.10/m/m.0/Add_1_output_0: 3d6876de
/model.10/Concat_output_0: 3da917be
/model.10/cv2/conv/Conv_output_0: 3d8b12e4
/model.10/cv2/act/Sigmoid_output_0: 3c00fc1c
/model.10/cv2/act/Mul_output_0: 3d8b0c86
/model.11/Resize_output_0: 3d8b0c86
/model.12/Concat_output_0: 3d8b0c86
/model.13/cv1/conv/Conv_output_0: 3d9d7f76
/model.13/cv1/act/Sigmoid_output_0: 3c010023
/model.13/cv1/act/Mul_output_0: 3d9d7d2b
/model.13/Split_output_0: 3d9d7d2b
/model.13/Split_output_1: 3d69d98e
/model.13/m.0/cv1/conv/Conv_output_0: 3d62f25b
/model.13/m.0/cv1/act/Sigmoid_output_0: 3c00e502
/model.13/m.0/cv1/act/Mul_output_0: 3d62bf53
/model.13/m.0/cv2/conv/Conv_output_0: 3db1ab0e
/model.13/m.0/cv2/act/Sigmoid_output_0: 3c00f948
/model.13/m.0/cv2/act/Mul_output_0: 3d84dc97
/model.13/m.0/Add_output_0: 3d813449
/model.13/Concat_output_0: 3d9d7d2b
/model.13/cv2/conv/Conv_output_0: 3da3cbef
/model.13/cv2/act/Sigmoid_output_0: 3c00fc06
/model.13/cv2/act/Mul_output_0: 3d8ad14c
/model.14/Resize_output_0: 3d8ad14c
/model.15/Concat_output_0: 3d8ad14c
/model.16/cv1/conv/Conv_output_0: 3d88028a
/model.16/cv1/act/Sigmoid_output_0: 3c00fad5
/model.16/cv1/act/Mul_output_0: 3d87faf7
/model.16/Split_output_0: 3d87faf7
/model.16/Split_output_1: 3d08f000
/model.16/m.0/cv1/conv/Conv_output_0: 3db6dad0
/model.16/m.0/cv1/act/Sigmoid_output_0: 3c00ddf6
/model.16/m.0/cv1/act/Mul_output_0: 3d5bb00d
/model.16/m.0/cv2/conv/Conv_output_0: 3e8dc214
/model.16/m.0/cv2/act/Sigmoid_output_0: 3c00fd95
/model.16/m.0/cv2/act/Mul_output_0: 3d8fbdbb
/model.16/m.0/Add_output_0: 3d8bfc9d
/model.16/Concat_output_0: 3d8bfc9d
/model.16/cv2/conv/Conv_output_0: 3dd93456
/model.16/cv2/act/Sigmoid_output_0: 3c00f104
/model.16/cv2/act/Mul_output_0: 3d7410db
/model.17/conv/Conv_output_0: 3d97ecd5
/model.23/cv4.0/cv4.0.0/conv/Conv_output_0: 3dbbe087
/model.23/cv2.0/cv2.0.0/conv/Conv_output_0: 3da7684f
/model.23/cv3.0/cv3.0.0/cv3.0.0.0/conv/Conv_output_0: 3e21ddc2
/model.17/act/Sigmoid_output_0: 3c00ff57
/model.23/cv4.0/cv4.0.0/act/Sigmoid_output_0: 3c0101ba
/model.23/cv2.0/cv2.0.0/act/Sigmoid_output_0: 3c00ddd1
/model.23/cv3.0/cv3.0.0/cv3.0.0.0/act/Sigmoid_output_0: 3c010204
/model.17/act/Mul_output_0: 3d97e9ad
/model.23/cv4.0/cv4.0.0/act/Mul_output_0: 3dbbe01c
/model.23/cv2.0/cv2.0.0/act/Mul_output_0: 3d5b8e39
/model.23/cv3.0/cv3.0.0/cv3.0.0.0/act/Mul_output_0: 3e1071a5
/model.18/Concat_output_0: 3d97e9ad
/model.23/cv4.0/cv4.0.1/conv/Conv_output_0: 3e3f09e2
/model.23/cv2.0/cv2.0.1/conv/Conv_output_0: 3da26924
/model.23/cv3.0/cv3.0.0/cv3.0.0.1/conv/Conv_output_0: 3e126399
/model.19/cv1/conv/Conv_output_0: 3d928945
/model.23/cv4.0/cv4.0.1/act/Sigmoid_output_0: 3c0101fc
/model.23/cv2.0/cv2.0.1/act/Sigmoid_output_0: 3c00fecc
/model.23/cv3.0/cv3.0.0/cv3.0.0.1/act/Sigmoid_output_0: 3c00fee4
/model.19/cv1/act/Sigmoid_output_0: 3c00fe47
/model.23/cv4.0/cv4.0.1/act/Mul_output_0: 3ddf7814
/model.23/cv2.0/cv2.0.1/act/Mul_output_0: 3d94fa25
/model.23/cv3.0/cv3.0.0/cv3.0.0.1/act/Mul_output_0: 3d9576b4
/model.19/cv1/act/Mul_output_0: 3d928505
/model.23/cv4.0/cv4.0.2/Conv_output_0: 3c6b7f53
/model.23/cv2.0/cv2.0.2/Conv_output_0: 3ddfc5bc
/model.23/cv3.0/cv3.0.1/cv3.0.1.0/conv/Conv_output_0: 3e4f63b5
/model.19/Split_output_0: 3d928505
/model.19/Split_output_1: 3d449196
/model.23/Reshape_output_0: 3c6b7f53
/model.23/cv3.0/cv3.0.1/cv3.0.1.0/act/Sigmoid_output_0: 3c010204
/model.19/m.0/cv1/conv/Conv_output_0: 3db4e2bd
/model.23/cv3.0/cv3.0.1/cv3.0.1.0/act/Mul_output_0: 3e4f63b5
/model.19/m.0/cv1/act/Sigmoid_output_0: 3c00ffb9
/model.23/cv3.0/cv3.0.1/cv3.0.1.1/conv/Conv_output_0: 3e89ea62
/model.19/m.0/cv1/act/Mul_output_0: 3d9a57c7
/model.23/cv3.0/cv3.0.1/cv3.0.1.1/act/Sigmoid_output_0: 3c010204
/model.19/m.0/cv2/conv/Conv_output_0: 3e31e95f
/model.23/cv3.0/cv3.0.1/cv3.0.1.1/act/Mul_output_0: 3e8676f5
/model.19/m.0/cv2/act/Sigmoid_output_0: 3c0101f4
/model.23/cv3.0/cv3.0.2/Conv_output_0: 3eee6d39
/model.19/m.0/cv2/act/Mul_output_0: 3dd416dd
/model.23/Concat_1_output_0: 3eee6d39
/model.19/m.0/Add_output_0: 3dcf9b70
/model.23/Reshape_3_output_0: 3eee6d39
/model.19/Concat_output_0: 3dcf9b70
/model.19/cv2/conv/Conv_output_0: 3ddcce1a
/model.19/cv2/act/Sigmoid_output_0: 3c0101fb
/model.19/cv2/act/Mul_output_0: 3ddcce0b
/model.20/conv/Conv_output_0: 3d8e7a12
/model.23/cv4.1/cv4.1.0/conv/Conv_output_0: 3d89eac9
/model.23/cv2.1/cv2.1.0/conv/Conv_output_0: 3d91cfd7
/model.23/cv3.1/cv3.1.0/cv3.1.0.0/conv/Conv_output_0: 3e068ee6
/model.20/act/Sigmoid_output_0: 3c00fd3d
/model.23/cv4.1/cv4.1.0/act/Sigmoid_output_0: 3c00dae1
/model.23/cv2.1/cv2.1.0/act/Sigmoid_output_0: 3c00fa73
/model.23/cv3.1/cv3.1.0/cv3.1.0.0/act/Sigmoid_output_0: 3c010204
/model.20/act/Mul_output_0: 3d8e74cc
/model.23/cv4.1/cv4.1.0/act/Mul_output_0: 3d590467
/model.23/cv2.1/cv2.1.0/act/Mul_output_0: 3d8728e7
/model.23/cv3.1/cv3.1.0/cv3.1.0.0/act/Mul_output_0: 3e068ee6
/model.21/Concat_output_0: 3d8e74cc
/model.23/cv4.1/cv4.1.1/conv/Conv_output_0: 3dceb734
/model.23/cv2.1/cv2.1.1/conv/Conv_output_0: 3da6dae0
/model.23/cv3.1/cv3.1.0/cv3.1.0.1/conv/Conv_output_0: 3ddcd48f
/model.22/cv1/conv/Conv_output_0: 3da18fd1
/model.23/cv4.1/cv4.1.1/act/Sigmoid_output_0: 3c00ce9a
/model.23/cv2.1/cv2.1.1/act/Sigmoid_output_0: 3c0100f3
/model.23/cv3.1/cv3.1.0/cv3.1.0.1/act/Sigmoid_output_0: 3c0101fb
/model.22/cv1/act/Sigmoid_output_0: 3c01008c
/model.23/cv4.1/cv4.1.1/act/Mul_output_0: 3d5022f0
/model.23/cv2.1/cv2.1.1/act/Mul_output_0: 3da6d97f
/model.23/cv3.1/cv3.1.0/cv3.1.0.1/act/Mul_output_0: 3ddcd480
/model.22/cv1/act/Mul_output_0: 3da18df9
/model.23/cv4.1/cv4.1.2/Conv_output_0: 3c266b0b
/model.23/cv2.1/cv2.1.2/Conv_output_0: 3db57a06
/model.23/cv3.1/cv3.1.1/cv3.1.1.0/conv/Conv_output_0: 3e37585e
/model.22/Split_output_0: 3da18df9
/model.22/Split_output_1: 3d8eb424
/model.23/Reshape_1_output_0: 3c266b0b
/model.23/cv3.1/cv3.1.1/cv3.1.1.0/act/Sigmoid_output_0: 3c010204
/model.22/m.0/cv1/conv/Conv_output_0: 3da1e57e
/model.22/m.0/cv2/conv/Conv_output_0: 3d931b23
/model.23/cv3.1/cv3.1.1/cv3.1.1.0/act/Mul_output_0: 3e37585e
/model.22/m.0/cv1/act/Sigmoid_output_0: 3c010093
/model.22/m.0/cv2/act/Sigmoid_output_0: 3c00fe67
/model.23/cv3.1/cv3.1.1/cv3.1.1.1/conv/Conv_output_0: 3e792aae
/model.22/m.0/cv1/act/Mul_output_0: 3da1e3af
/model.22/m.0/cv2/act/Mul_output_0: 3d931704
/model.23/cv3.1/cv3.1.1/cv3.1.1.1/act/Sigmoid_output_0: 3c010204
/model.22/m.0/m/m.0/cv1/conv/Conv_output_0: 3ddcd7da
/model.23/cv3.1/cv3.1.1/cv3.1.1.1/act/Mul_output_0: 3e792aae
/model.22/m.0/m/m.0/cv1/act/Sigmoid_output_0: 3c0101fb
/model.23/cv3.1/cv3.1.2/Conv_output_0: 3ee36fce
/model.22/m.0/m/m.0/cv1/act/Mul_output_0: 3ddcd7cb
/model.23/Concat_2_output_0: 3ee36fce
/model.22/m.0/m/m.0/cv2/conv/Conv_output_0: 3da06b71
/model.23/Reshape_4_output_0: 3ee36fce
/model.22/m.0/m/m.0/cv2/act/Sigmoid_output_0: 3c010051
/model.22/m.0/m/m.0/cv2/act/Mul_output_0: 3d9f283b
/model.22/m.0/m/m.0/Add_output_0: 3dc44fea
/model.22/m.0/m/m.1/cv1/conv/Conv_output_0: 3dd19b80
/model.22/m.0/m/m.1/cv1/act/Sigmoid_output_0: 3c0101f1
/model.22/m.0/m/m.1/cv1/act/Mul_output_0: 3dd19b61
/model.22/m.0/m/m.1/cv2/conv/Conv_output_0: 3dcb141e
/model.22/m.0/m/m.1/cv2/act/Sigmoid_output_0: 3c0101e8
/model.22/m.0/m/m.1/cv2/act/Mul_output_0: 3dcb13f2
/model.22/m.0/m/m.1/Add_output_0: 3e112d5d
/model.22/m.0/Concat_output_0: 3e112d5d
/model.22/m.0/cv3/conv/Conv_output_0: 3dc63d3b
/model.22/m.0/cv3/act/Sigmoid_output_0: 3c01017c
/model.22/m.0/cv3/act/Mul_output_0: 3db207d4
/model.22/Concat_output_0: 3db207d4
/model.22/cv2/conv/Conv_output_0: 3dd803ef
/model.22/cv2/act/Sigmoid_output_0: 3c0101f7
/model.22/cv2/act/Mul_output_0: 3dd803da
/model.23/cv4.2/cv4.2.0/conv/Conv_output_0: 3d8ffbd0
/model.23/cv2.2/cv2.2.0/conv/Conv_output_0: 3d98e329
/model.23/cv3.2/cv3.2.0/cv3.2.0.0/conv/Conv_output_0: 3df4158b
/model.23/cv4.2/cv4.2.0/act/Sigmoid_output_0: 3c00c081
/model.23/cv2.2/cv2.2.0/act/Sigmoid_output_0: 3c00ff7f
/model.23/cv3.2/cv3.2.0/cv3.2.0.0/act/Sigmoid_output_0: 3c010202
/model.23/cv4.2/cv4.2.0/act/Mul_output_0: 3d483c1d
/model.23/cv2.2/cv2.2.0/act/Mul_output_0: 3d98e02d
/model.23/cv3.2/cv3.2.0/cv3.2.0.0/act/Mul_output_0: 3df41586
/model.23/cv4.2/cv4.2.1/conv/Conv_output_0: 3d825939
/model.23/cv2.2/cv2.2.1/conv/Conv_output_0: 3d9ee1d1
/model.23/cv3.2/cv3.2.0/cv3.2.0.1/conv/Conv_output_0: 3da5f70a
/model.23/cv4.2/cv4.2.1/act/Sigmoid_output_0: 3c0030c4
/model.23/cv2.2/cv2.2.1/act/Sigmoid_output_0: 3c01004a
/model.23/cv3.2/cv3.2.0/cv3.2.0.1/act/Sigmoid_output_0: 3c0100e4
/model.23/cv4.2/cv4.2.1/act/Mul_output_0: 3d220211
/model.23/cv2.2/cv2.2.1/act/Mul_output_0: 3d9edfaf
/model.23/cv3.2/cv3.2.0/cv3.2.0.1/act/Mul_output_0: 3da5f597
/model.23/cv4.2/cv4.2.2/Conv_output_0: 3c7f05a7
/model.23/cv2.2/cv2.2.2/Conv_output_0: 3d9fdd0c
/model.23/cv3.2/cv3.2.1/cv3.2.1.0/conv/Conv_output_0: 3e342c49
/model.23/Reshape_2_output_0: 3c7f05a7
/model.23/cv3.2/cv3.2.1/cv3.2.1.0/act/Sigmoid_output_0: 3c010204
/model.23/Concat_output_0: 3c7f05a7
/model.23/cv3.2/cv3.2.1/cv3.2.1.0/act/Mul_output_0: 3e342c49
/model.23/Sigmoid_output_0: 3bcdd47d
/model.23/cv3.2/cv3.2.1/cv3.2.1.1/conv/Conv_output_0: 3e18d37a
/model.23/Constant_3_output_0_output: 3b010204
ONNXTRT_Broadcast_41_output: 3b010204
/model.23/Sub_output_0: 3b8d537b
/model.23/cv3.2/cv3.2.1/cv3.2.1.1/act/Sigmoid_output_0: 3c010204
/model.23/Constant_4_output_0_output: 3ccaa525
ONNXTRT_Broadcast_43_output: 3ccaa525
/model.23/Mul_output_0: 3c5dfe98
/model.23/cv3.2/cv3.2.1/cv3.2.1.1/act/Mul_output_0: 3e18d37a
/model.23/cv3.2/cv3.2.2/Conv_output_0: 3eb67b69
/model.23/Cos_output_0: 3c010204
/model.23/Sin_output_0: 3c010204
/model.23/Concat_3_output_0: 3eb67b69
/model.23/Reshape_5_output_0: 3eb67b69
/model.23/Concat_4_output_0: 3eee6d39
/model.23/Split_output_0: 3ddfc5bc
/model.23/Split_output_1: 3eee6d39
/model.23/dfl/Reshape_output_0: 3ddfc5bc
/model.23/Sigmoid_1_output_0: 3bea78af
/model.23/dfl/Transpose_output_0: 3ddfc5bc
/model.23/dfl/Softmax_output: 3bfead23
/model.23/dfl/Softmax_output_0: 3bfead23
/model.23/dfl/conv/Conv_output_0: 3dcaf3ae
/model.23/dfl/Reshape_1_output_0: 3dcaf3ae
/model.23/Split_1_output_0: 3dcaf3ae
/model.23/Split_1_output_1: 3dca3a8d
/model.23/Sub_1_output_0: 3d87efd8
/model.23/Add_2_output_0: 3e3b55ca
/model.23/Constant_9_output_0_output: 3c810204
ONNXTRT_Broadcast_55_output: 3c810204
/model.23/Div_output_0: 3d07efd8
/model.23/Split_2_output_0: 3d07efd8
/model.23/Split_2_output_1: 3cfb308f
/model.23/Mul_1_output_0: 3d072f0c
/model.23/Mul_2_output_0: 3cf8153f
/model.23/Mul_3_output_0: 3ceaff13
/model.23/Mul_4_output_0: 3cc50fb5
/model.23/Sub_2_output_0: 3d07fa99
/model.23/Add_output_0: 3d005894
/model.23/Concat_5_output_0: 3d07fa99
/model.23/Constant_11_output_0_output: 3f808102
/model.23/Add_1_output_0: 3f80b1ba
/model.23/Concat_6_output_0: 3f80b1ba
/model.23/Constant_12_output_0_output: 3e810204
ONNXTRT_Broadcast_60_output: 3e810204
/model.23/Mul_5_output_0: 4100b1ba
output0: 4100b1ba
